solver_type L2R_L2LOSS_SVC
nr_class 20
label 1 2 3 4 5 6 7 8 9 10 11 12 13 14 15 16 17 18 19 20
nr_feature 400
bias -1
w
0.3828574946651302 -0.3688318280882992 -0.09035654968183053 1.104471502172718 -0.4185918782212165 -0.5217211392748407 0.6025476994395417 0.2036470093533289 -0.2609639029148182 -0.0943075350687391 0.3574245137888123 0.1569798322416738 0.0734418542131263 0.6495255304476611 0.3033131047459901 0.1529723442049417 -0.2883240781795126 -0.1162746963638974 -0.5681687527008259 -0.6345110662170573 
0.6255302467551467 -0.4546519911672353 0.3757695593458612 0.5174771419827104 -0.5347867649904621 -0.2525104431851936 -0.4078182686232162 0.1539205579527668 0.3984596968248315 0.4887230670493512 0.003874647200770839 0.6633511505647806 -0.1964043541314998 0.3119458686788676 -0.2997402888485609 -0.09268317810878848 0.3593465901337511 -0.07054744713104186 -0.1966242925653572 -0.2276216230559329 
0.7013305960651881 0.1118550804539092 0.2829744131266004 -0.01718160021364185 -0.5698251443161151 0.3206802413204184 -0.219406055435501 0.7415073980750271 0.3551360362412499 0.1159315068047191 0.2361024839702073 0.2777195174240651 -0.4950828044814782 0.3332453833104767 0.1440410134275556 -0.5462139857010212 0.6364154484204568 -0.1203288095804089 -0.9225816786631714 0.3155949846565083 
0.2043282332123489 -0.2235634654102741 0.02813171700254536 -0.2652393270989069 0.7923150495631939 -0.3354448857168654 -0.02725842210586309 -0.03888377816608026 -0.4050761829265025 -0.204830750775909 1.169382884315088 0.6888033919185319 0.3572387424937613 -0.4004417928183006 0.6292910123470067 0.6434375019871184 0.2610602428710881 -1.065269989267833 0.1651705665989492 0.427643362015059 
-0.2484453992222874 -0.2577260139309854 1.707210613332928 0.1839385895145818 0.3576590692736378 -0.5087603240571108 -0.5042369333048117 0.07657385171413583 0.186246047654023 -0.5026907448769782 -0.4344146182124565 0.1455824524185254 -0.1434469048799292 -0.452614862256557 -0.13016660814427 1.331838723974359 0.6634357565381479 -0.3861936392651522 -0.05564085799435346 -1.013587811884749 
0.1007469455710782 -0.2119431867514704 -0.03049523321292146 0.4354836501153695 -0.5559057943710076 0.3177087553123167 -0.3766112361094612 0.2532734716908832 -0.7373337163314559 0.3937062740466579 -0.289021524345022 -0.7372184987369467 -0.7237809209548982 -0.07419516774655643 1.410294364668283 -0.1310477385261458 0.04489412703537776 0.6459093643770628 -0.8784518369956068 -0.2646543852486425 
-0.08122173665740809 0.08915767089733495 0.2659617913770352 -0.500279450281638 -0.7167329239037967 0.04370793358494073 0.2571709908531309 -0.7123031245869795 -0.1106329133545753 0.3828512590632953 -0.1990323636970163 0.09705887927547668 0.003374082857848957 -0.05284481941864821 -0.395685501288376 0.6186217303173192 0.08444997326554925 -0.8844560942145638 -1.022323058307822 0.1579741751503059 
-0.7046450404910843 -0.01616513085125464 -0.1147720227268734 -0.7978227494125908 -0.2602989174369452 0.5293209501040472 -0.5181359766286256 -0.3073630178957062 0.05236999468325634 -0.4964389621564756 -0.2894922529964329 0.9156219799307935 -0.08762646447579227 0.2944318946178074 -0.5220701686859438 0.2351364715741085 -0.3796015499287722 0.2722870620745479 0.4169442939539816 0.2568754960493239 
0.3669574935252949 0.2011017417110092 -0.5357269284933536 0.1765385415936272 0.6892813436997509 -0.02067442778472556 0.1900068693546401 0.5736105652093388 -0.5370088516642344 -0.6930963012401692 -0.5157871783421177 -0.6780167131324457 0.06661070457239969 -0.7392206638240018 0.3890974180269785 -0.688737320950256 0.3493385594693386 0.3208130787607584 -0.09238261748933034 -0.1168684220585143 
-0.1254274075823239 0.02260203518624138 -0.3050517070098691 -0.1835596122463061 -0.3032024657534605 0.5335556124172035 0.3592113650373761 0.3910081717337937 -0.4601524360003181 0.08806955882052372 0.2258929635588693 -0.3919043805655891 0.287581797120582 -0.3796218379845772 -0.9876302793910513 -0.8495662224836416 -0.5864694837970665 -0.3224298205049878 -0.4587154202894653 -0.6409739916033909 
0.2057325021252542 -0.2947784203821346 0.1107126931387281 0.4372408686232971 -0.3347010208745462 -0.3171808094699273 0.6809892766836805 -0.6325106842278453 0.3853844038438373 -1.307667608001062 0.4263821622383872 -0.7207718577624853 0.08361087153177993 0.738665936253258 -0.3223660664898379 -0.1178885103983707 0.3919927298485089 -0.5236403963309446 -0.1784609773913649 0.03784812177480903 
0.1884082586662628 -0.08803425238997888 0.4708632793621573 0.1482915299109712 -0.331376218634294 -0.8424904517580992 0.6477595092924605 -0.03877984107576536 -0.2097319129423699 0.6615589626743014 0.8654065129183854 0.03211920926741835 0.1917730252296811 -0.1475525327314001 0.624903710685492 0.05881652906106288 -1.251980095454205 0.4823568097742257 0.4888417875746187 -0.3140689043591201 
-0.2857842851822854 -0.8010421769474393 0.2233170913400641 -0.2763079782934117 -0.05708926185536987 -0.471129803802466 0.4179237707798052 0.05581908064733335 -0.01207472802754348 -0.08919422403324555 -0.110815942659351 -0.1078406960101757 -0.1197337312003163 0.4172488419264274 -0.674119100201158 0.003965415423909019 0.3565824563836655 -0.8602184531646988 -0.8380956808706079 -0.0672245135907629 
-0.7912483298618332 0.2174209231558551 0.02667893869271706 -0.5264408464368541 0.06056640849123967 0.4297992330109301 -0.1403396014449579 0.2925000134487403 -0.4010657430630259 -1.040119476002886 0.3523565518032795 -0.3979137338617464 -0.870493193542588 -0.1989736773255453 0.6183612688075377 -0.6738632564357634 0.7148843377294765 -0.2477165424879487 -1.543435018502685 -0.5667517737545326 
0.673318605583997 0.5768577765810146 -0.4862865867720761 -0.0004740184177266099 0.6955282076383705 0.5052193882227692 -0.4250123712342393 0.7464497701585741 1.029571265102292 0.2826452474731164 -0.2804548498501146 0.2374219353041202 0.1438272331352357 0.1944926847632624 -0.5682152405577114 -0.8643521792844421 -0.4240296170349274 0.0004000659580202306 0.3918365068581165 0.2587547524551381 
-0.4514527360913668 -0.3225123747314546 -0.832850769105777 0.3354395179587593 -0.1007984394909335 -0.7860757194773227 0.7489967900041308 -0.5422103191265043 -0.5334310983432536 0.5109703167978464 -0.2267746494646352 -0.08097430925259759 -0.1407957038085186 0.7698270130314676 0.2850447270160897 -0.1587300527861737 -0.02709424627698208 -0.6426501715628523 -0.2803033465156369 0.001938109588527366 
-0.9306251717833712 0.4355335762546565 0.1642638047587974 0.897432968348179 -0.4644905207424028 -0.005086816153639588 -0.07507089198765102 -0.268721075623899 -0.0580114096652371 -0.8095704905485738 -0.1136282738585012 -0.2010261422597049 0.7209554420927046 0.00859889465826302 -0.198875352797709 0.3940799897768454 0.6593567058440536 0.5354000256868191 -0.1597626857023564 -0.3828113467958645 
0.5839065808381163 -0.2552875120746314 0.07621939105005107 0.1815262014875248 0.3703003828667558 -0.118447166660925 -0.5566884371698162 0.3970370299650892 -0.2759080884136358 0.09290999959212515 -0.238127339807424 0.08563220179613887 0.2715013298067979 -0.2796899559910409 -0.4798803183423141 0.3080703059737356 -0.2704051993748384 -0.009978988571571035 0.2972612009189393 0.6120731312921529 
-0.01322781236430231 0.1850378413656463 0.08907913459953049 0.09028900336497649 -0.2217084665161596 0.1775899803971708 -0.1916463548905319 0.7043625866772092 0.1421037733474398 -0.3946048423606102 -0.5238930884266634 -0.144918943639926 -0.7069213961801764 0.2431766815698873 1.143370921016625 0.4634152589557869 -0.8492291283387371 1.023344895223316 -0.6033796106114238 -0.3174901695145962 
0.1852367258679377 -0.02186288250849805 0.1943958386232144 -0.007885710435738918 -0.219546695798465 -0.3792836926227469 -0.8019480226700132 -0.923084450849281 -0.06714057965300824 -0.1079719668476038 -0.05181784839314997 -0.08171419245638996 0.2253754352037106 -0.1525702312430856 -0.3032802746321863 -0.3991601949476965 0.4783000536500254 0.6929717242271561 -0.3487182424028432 0.003971136012341841 
0.07181673681277592 -0.7101617605543752 0.1049736312584722 0.1015779244268096 0.5224055962649403 0.4733942551909593 -0.02230988623468824 0.3468713358560702 0.008096403137707145 0.2043649565127178 0.5706561178899661 -0.1002647115711529 0.3571666494535402 0.4383045052294832 0.9638583828459049 -1.118998945885096 0.695538626743457 0.1151329844739901 0.4463526546753021 0.1734535200111722 
-0.7057862454398767 0.2489202655794297 0.09292082919962016 0.5074785515237656 0.6401156352707776 0.6228652555685071 -0.3733756160036396 -0.6546907405990851 0.4897248913767428 0.04058758461187713 -0.04321758260130803 0.7295064175775025 0.5708469436670469 0.2605156453583288 -0.6300946337476745 -0.2039896001120703 0.607899336728742 -0.4388695156482336 -0.3177728618172548 0.1453359492493999 
0.2488956435793738 0.2767707413041421 -0.3581770464995148 0.4293887383992057 0.3665600030314036 -0.922706416412601 0.6766006520709521 0.7765407599991003 -0.1606880237646062 -0.9175254859416467 0.5620071465744269 0.04583384111481306 0.5683904120114524 0.4444585496353895 0.1269888086843409 0.2504626437873496 -0.9106218797212025 0.3837039963212066 -0.6955653688021141 -0.3570309050071794 
0.8021216717949122 -0.2897881806795576 -0.2322932418670708 0.112538380514538 0.8515713127586271 0.694324229621314 -0.1257452971409242 0.08154665522307719 -0.5454656016699312 -0.07938873577803769 0.1213626111278586 0.08511354306592211 0.4391913016787718 -0.2362362163650494 0.4049137550963207 -0.552504098689019 0.4084253382602899 0.1595686461299587 0.4314048073608823 -0.4888038271780546 
0.09752707464665042 -0.2450317497087859 -0.2297330112884559 0.2083684837696452 0.1285906760178437 0.3644474176169429 -0.8254270820564977 -0.2529541514546302 0.1396745951330964 -0.4523484116936751 -0.8323413083180708 -0.2904134226495571 0.2782712189616512 -0.4556980514404169 -0.7424030858783213 0.153694488562083 -0.3230160571124482 0.2032926169879519 1.25823912914903 -0.5916025990083845 
1.097456183279007 0.1971814293558703 -0.1813620742830946 0.1858677218950202 -0.4951108432776961 0.4366065739055744 0.6877095137897162 -0.2300370598422673 0.5927491600670495 0.1842328330916415 0.4905402432699229 -0.5447230712559374 0.5872294546475327 -0.03869095569120225 -0.05507022324984422 0.7987463378007973 -0.7257550509377382 0.2519854070628887 -0.09238212478297003 0.1033151020955864 
0.03930716224209091 0.4611670919417343 -0.7813316518401374 -0.4256136486874692 0.437850101912864 0.899602308811948 0.235015904298165 0.4877918401268551 -0.01032680660607833 -0.4150122416791201 0.4359065558458115 0.6111509828124774 0.8227054232962798 -0.1757065119942138 -0.05821153658947094 -0.1156676240654541 -0.4372520761178008 0.1097311680291706 -0.1932769941445404 -0.2849864760105064 
0.5284837075573138 0.6110913434881637 0.04161651079379963 0.1352363842042087 -0.5728992283739924 0.02416929310884825 0.1356553011236028 -0.09950612550411418 0.1658502132391698 -0.06136001557817609 0.1460841281863076 -0.4297129813777409 0.1835497627923285 0.310567225499835 0.1775802626221272 -0.6781438673936526 -0.06913701398059122 0.08493366045334003 0.7590722764754904 0.109469077015371 
0.1612796477124845 0.4588013904289783 -0.1021404525863472 0.2425721178324849 0.1059463248682857 -0.1691253532087226 -0.3079834964153964 -0.2758052604960523 0.4284163809361079 0.04434625589706011 0.5252030079805778 0.4937586775151895 0.4870212546143073 0.2988722292639551 0.07678383778995004 1.067514073402178 0.189885433167028 0.0473634819599495 0.3430532214144242 -0.2305499285604796 
-0.2526777823031038 0.3238494955236704 -0.7308120808184567 -0.2533214440063055 -0.7508229242851038 0.04741312259743592 0.01954947416962485 -0.3781521227669315 -0.8180889998916722 -0.1348913163662041 0.3595542612858372 -1.131092773982983 0.06032257498197063 0.01351191045654682 0.375963372200845 -0.3981985235535531 -0.6359191637618135 0.4914815058825837 -0.2027223647723708 -0.1502961489056139 
0.8292800076935047 -0.1651215746041896 -0.5181864770796702 -0.2140591189811073 0.1221503269233369 -0.1257538941488767 -0.2956351395238121 0.1168098433036299 -0.01376230767144927 0.1850197707733975 -0.5023140104125813 -0.5662390789462887 -0.1284469152226616 0.6945088781685803 1.084303653613182 -0.5458778334857233 -0.230452919383195 -0.2355283868844306 -0.2234990207655152 -0.4362898879271142 
0.07690658173911716 0.01117210319459788 -0.8971947534431982 -0.2274380437936777 0.6240042083447654 0.4498168895804153 0.7491650128595339 0.08340805465287494 -0.2030278059436723 0.1515138817915285 -0.477367140098699 0.02922532002359822 -0.4678489983698332 0.1507316404737813 -0.8506459034213791 0.4179441486166157 0.3070224864302489 0.4063303510353227 0.04087406081332291 -0.1503721347589966 
-0.58639915458029 0.7454409934775111 -0.9012036913930201 0.6579815252636455 0.02298329815025727 0.2935820725620746 -0.01417374643894107 0.1839844273738251 -0.4412185698453553 1.013957301944296 -0.3496548315068382 -0.01946563443403803 -0.02637016241040824 -0.1517957847653001 0.1793823388270509 0.8905035355935731 -0.3888440211884653 1.248907479467355 -0.3187390709979662 0.2614555340824735 
-0.316050715450051 -0.5371859844109937 0.8879878817920077 -0.2598742291664515 0.08613022665705596 -1.176419971623664 -0.5784996403079566 0.2666361468287113 0.06626624711755759 0.1419259261270524 -0.5941568584125188 -0.2400961188881428 0.141541818309038 0.2279196320381497 -0.9158464480927028 0.06334525479586421 0.1305033566401353 0.3184655896150939 0.6860645176819946 -0.6892172813744821 
-0.2105600803292371 -0.6116187710854251 0.2432199838457074 -0.02579323164293358 -0.02552282064739683 -1.110149793362443 0.5094015110526937 0.4265250979721442 -0.3491483686483884 -0.06564749330851589 -0.3129828348650526 0.3046487077264368 0.8317265982738529 0.9311124866204366 0.1879113746972686 0.002904057182690628 -0.1870212567327691 -0.4918418023561791 0.2787119720642461 0.6605920302064381 
-0.06835682786546053 -0.01602729291099181 0.2762012474351278 -0.3013869661254142 -0.2720515071415423 0.06674010290587298 -0.07371215363163429 0.4009675171771926 0.2477395129661455 -0.4447618186386318 -0.2869148195233009 -0.08961770523207793 -0.06902459783636415 -0.00682357940146755 0.9207608803642549 0.1331139638456302 -0.05432092141368389 -0.545898093093259 -0.1204753191408953 0.1150628822603061 
0.09382790970663835 0.09139674007643138 -0.7519390384174084 -0.0954434128786458 -0.1556120681860865 0.4932179036179575 -0.9930225602602181 -0.0118769378014849 -0.6347905590181175 0.1595586758869976 0.07845847606096532 -0.3735805252549114 -0.3984187362972491 -0.3863466315049291 0.6641128688658207 0.06975155959518255 -0.5948170984413337 -0.05870224394239424 -0.7409086107167987 -0.06534316145767689 
1.099833683035263 0.6447373861578621 -0.8117933444046569 -0.5308266239293107 1.261924289575952 -0.4754494557709797 -0.691494338398685 0.3690558593627918 0.4085958467801465 -0.6383149272126001 -0.4571920060733506 -0.3241639875798994 -0.3940331554875074 -1.163919766326651 -0.01275376029132604 -0.8969122752342493 0.9404813872262336 0.08870941477728789 -0.2370860604480265 0.3059612004917126 
0.4089447795418032 -0.1863080046966868 0.4612646837077878 0.1577776462265169 -0.02606253348162458 -0.04912301611476184 -0.1916619625546701 -0.08675779489103699 -0.2775330373213261 -0.346889410279192 -0.6400752867403035 -0.4627514073748135 0.3953895100212764 -1.329674309016447 0.3317434623161528 0.1871204496594875 -0.5244483046473478 -0.3938412066740952 0.213206912462146 -0.1703984473235542 
-0.7494330659009156 -0.1877219572081007 0.6374655165801697 0.1412870258031889 -0.2906596101397146 -1.050881385756122 0.2565027246667623 -0.5268424624411862 0.2490664500612312 -0.403573951077436 0.5775425983827513 0.142097316075127 -0.1920232685779283 -0.4387402942152465 0.4532838145030392 -0.8690592391613157 -0.3227550580144181 0.5657278804967049 -0.2127584244101087 -0.1645848347270673 
-0.6093566156966289 -0.2270272282960702 0.583101309567015 0.1451649131428754 0.1115602429461746 0.1538469548720313 -0.6256536357854865 0.3452919185522542 0.3662522099790327 0.7102868144451718 -0.2105112555449843 0.4985867164201389 -0.2244273094130178 0.222176009230652 -0.06727230335201483 0.9132696937197583 0.4578047303259685 -0.4480009998087128 0.08566696848066363 -0.5600380970133332 
0.5209062787991308 0.2776855100058992 0.1296666329652823 0.3741002528138422 -0.1599161974315992 0.1234665791398569 -0.4385365095324755 -0.1926385227360482 -0.1064071621197044 -0.9770527415642013 0.02915069888995704 0.8684284311417286 -0.2923614933867301 -0.1611422956276956 0.3648662956737658 -0.9656746969827005 0.02639765855208567 -0.4533922101273281 0.07511223302239234 -0.06859148127900377 
-0.1095656954539655 0.005680160809539517 -0.3129673932202574 -0.0450448919877772 0.2710818825166521 -0.001708572439086023 -0.2608045251070634 1.303325403756129 -0.06919222722712025 -0.01518152551941753 0.1213052822149559 -0.2932465559647093 0.2087810327791209 -0.1494103528817002 0.6444441390791509 -0.1182905885496188 -0.417270583365351 0.1775543750609633 -0.3496261770033162 0.1811227156323328 
0.4748653107416794 0.1349700175579341 0.1558074648241748 0.8283082179309719 0.05676666062957408 -0.04155979633398663 -0.5826768436887185 -0.2584014299021128 1.050844432682444 -0.7461297866537946 0.1338408171813663 0.3039376644840501 -0.105026273279219 0.2939641684836666 -0.2473367541868677 -0.02779961689495149 0.444179999029406 0.8311043404535787 0.3391751254342052 0.2454368781585525 
-0.8068791164499407 -0.1624879325252119 -0.1144037046625995 -0.006927195705893882 -0.377333754851294 -0.1865792962447944 -0.4030140250764334 0.3055700855925414 0.1006449514616325 -0.9320198546014373 0.2707854158816024 0.3617813202928248 -0.3027262699272843 0.1232243559814495 -1.364620072500865 0.2405386658142429 -0.448980530795112 0.03051900803426133 -0.152044713324055 0.2415888192063146 
0.2536444698827702 -0.5746088916685317 0.1755157439291743 -0.2418552813964607 0.4281175858930362 0.3043776888293834 -0.265864625250909 0.9513494985932783 -0.6615944765496208 0.3117456101071209 -0.08562281054589098 -0.2510231396987123 0.4941859178444306 -0.5187170901815185 0.2577685414649076 0.3805550141397105 -0.336274350727206 0.256146727217732 0.3152178382557683 0.1826535669302737 
-1.054034804180624 -0.01741859511116944 1.007272123005421 0.2733789738023382 -0.2571121694385339 0.09173656667762972 0.07903314415634294 0.3063798813504179 -0.04836878207386482 0.4391650459170206 0.4235469422512512 0.5803447246305992 0.2819815939828533 0.4623073392456993 0.03771199094151245 1.477951634098936 -0.273594247479728 0.3235800318947078 0.5578387610229225 0.09543005806462342 
-0.4582511566659956 -0.2001657902268848 0.1816685367587816 0.2493887816041407 0.01213312251860482 0.08239848812529477 0.2550225340550312 -0.09453326860252786 -0.3546295122604 0.1442655240996614 0.1720635631175787 -0.6256144629975078 -0.6494058515748232 0.6931692892353212 -0.4757316773653331 -1.757404399069066 -0.4450562732079791 0.2346902001504491 0.1893982349336582 0.7548798990600976 
0.1109469489955728 0.5932937050268295 0.009309264939140759 0.0684603369192648 -0.5558096071810521 -0.01020025613531041 -0.1669264840878066 -0.7511260951482428 0.3410724100040111 -0.4579481843164119 -0.1595219286556349 -0.9716270303512304 -0.06979063388296278 -0.2554639199247177 0.1964414031364935 0.7590263603888696 -0.1928511422849038 -0.1233662219674463 -0.2744673486671051 -0.5186272682137851 
0.4784975046334147 0.2344777785798861 0.5789615612716367 0.03396845141434931 0.2389597256267973 0.06993406472578526 0.5163320222247829 -0.239931440209334 0.6199594986937105 -0.1103769108437669 0.6456010526971255 -0.3113839774892543 -0.442448544676947 -0.3568226645849 -0.47894220478299 0.40766668009754 0.3506385350406934 0.3041515900610409 0.6335348872047827 0.7238521184743083 
0.7599316070888777 -0.6912946449975816 -0.07614039697220465 0.2241110478019815 -0.274150508298018 0.4469780335431855 0.3291193102731751 -0.2835632301765615 0.01978067511152739 -0.5055948171046857 -0.6068026365086924 -0.1379512867712942 0.1861227737646458 -0.5636584373808695 -0.2535255383845037 1.176170797398045 -0.02414201029673529 -1.132428981581206 -0.8061723044358243 -1.022436294490999 
0.1349027513910463 0.3122941864190041 0.1408988148538287 0.3710476709788372 -0.4745196320669652 0.1042828612076253 -0.5701069264227071 -0.4016606401712335 -0.2440613662404254 -0.2997538379558305 0.7810183803242821 0.4370250610440807 0.4970396527592328 -0.2096680414576251 -0.1117196898463075 0.2706700406935915 0.2658686165740902 -0.5876873244307217 -0.6446024576202465 0.2450371157752946 
0.2904774888933912 -0.04770701220074514 0.3103653839402653 0.3356876784729744 0.07227779697522375 -0.1217324058647268 -0.05788719290291806 0.999999505239043 -0.8288797249950728 0.8819553859188194 -0.6695148112697172 0.547482364156346 0.2237309691506107 0.6922464594540654 -0.3214259672260287 0.1021859020350439 0.2212452214767819 -0.04422196394439142 0.4061374675786862 -0.04536356060912732 
-0.3374961972586551 -0.2097514718218472 -0.6688262592877384 -0.01221084550418895 0.3276137235307341 0.4526381648741791 0.4612779741344714 0.7285223848873615 -0.7772810573858556 0.9093561701187542 -0.3489124318687108 0.1281111429646568 0.06727752884359929 0.2286795394189279 -0.179875881155339 0.3039812371753045 0.4020011824790046 0.5342342891157368 -0.5645611493553166 -0.1758755043372889 
-0.4222192518451379 -0.0941087393512411 -0.0314759108069191 -0.02947432195064707 -0.744793998987713 0.2834972424811696 -0.07606486893850489 0.3578131813603931 -0.2150081045138478 0.2719052425827314 0.3097806475631241 -0.08003732748719335 -0.3882636259884992 1.046907726821115 0.3350978737438867 0.9748680586796568 1.053871932564062 -0.05284159462201929 -0.3776516157019545 0.07465549640543812 
0.06337861228123898 0.1864747829303088 0.1429304531978883 -0.1154323081161681 0.6200138549817058 -0.04141876395079414 0.01368561430171505 0.2630593477806953 1.098763066736575 -0.06817753043073983 0.08836676757626327 0.3052720628244308 0.05010425155847643 -0.08032252122810717 0.9347844174134673 0.3955727412057661 0.5035147883163877 -0.4993593502048834 -0.3090697721634555 -0.1359712803841512 
0.6430574236078114 -0.2026945254054818 -0.4078747455836836 -0.09143932170117049 0.33363965908604 -0.8145080182325001 0.3248261311949815 -0.02288629473419865 0.1440290044730925 -0.05534788792229968 0.4319497545855796 -0.6575975165243092 -0.1380178804941738 0.6156559551618158 -0.4475938906443819 -0.8943144852844195 0.6268596695565378 0.1691521099857666 0.6697072851707899 0.6815501560725417 
-0.5682961119956395 0.1838544786586794 -0.8553831196151347 -0.4862670181159401 0.7125706550025669 -0.138355530549146 -1.034055228127232 0.6937999346526884 0.02609968908074715 -0.2910307956157928 0.5704634164409285 -0.4491916780067972 0.1153114949590318 -0.6401488224068242 0.2529573934305686 -0.3370441259234657 0.3887592234559522 0.2014063202267539 -0.4119062536830131 0.617463592583623 
0.02429273272600718 -0.2327970308400787 -0.7938418252408349 0.6384321527153801 0.4388849301317319 -0.2891954829641589 -0.5048983231839663 -0.7542988914589998 -0.4163609136968195 -0.3604116871574442 -0.6576234294586323 -0.3233225288864717 0.03793533268456856 -0.6566157676053622 -0.009055953950217174 -0.4990807148019794 -0.8675971659715782 0.5518177732611542 -0.01128384571191423 -0.2149333302100569 
1.196690694238018 0.2232017964276845 0.3761009803261774 0.1827500724013096 0.5676721241055801 -0.109595956197703 0.4900518241999066 0.2095424554641959 0.08495282839583092 -0.2772996424733014 0.1548751343988411 0.125163966102983 0.03149444034781433 0.4708625899863794 -0.5018949627626612 1.354145509744667 0.6836795681906336 -1.055850878074629 0.6788458101914308 -0.1876322688099894 
0.06156146926446852 0.5421929884791252 -0.07828382415742284 0.07787281147270703 0.3343196633502982 -0.6950235384818498 -0.5187234773403816 0.6847957661707501 -0.2093306140867431 0.02241258451919108 0.08878169418613004 -0.0009879469054583142 0.01810515428748549 0.3605644494023023 0.16552634844972 0.173671364758723 -0.05327714408230991 0.1063873833179891 0.2225082704681334 -0.2167387259464568 
-0.7374177753141835 -0.1855899719395892 0.6167592976570396 0.06763880350107584 0.237244454086552 -0.0766246168529944 -0.8943063024873276 0.668957002147984 -0.3352767521748616 -0.4525583330974586 -0.1356261449995077 -0.0286211141105609 0.6620743517556045 0.4475985050085841 0.4851585546600631 -0.152482854419162 0.4335238899984419 0.4447345876347045 0.1821531978915468 1.160182882398439 
0.538661397372322 0.7560560013113014 -0.2285172587271891 0.04713610820401693 0.2300914951761121 0.02134283646894717 0.5872727784503945 -0.2307335955122304 -0.551912857183069 0.8201212323067294 0.6890793946494781 -0.1493863232793989 0.2897354578487737 0.7227012685032838 0.3323280975118631 -0.1424505688401781 0.2033400555574224 0.6870269180044271 -0.284641074053527 -0.05163140592224121 
0.4934282336874293 0.2968422133414967 -0.03769386392352025 -0.6437054978823353 0.2340229648934253 0.07623511046274445 1.170983274260099 0.339876151721482 0.008929674240852068 -0.2157877849632215 -0.2538724653855214 0.1592511346882162 -0.3359098335369555 -0.5431734246778602 -0.05935267044865204 -1.118400946047711 -0.4214088373441587 -0.2376167665699471 0.2605981839660398 1.020261630675905 
-0.5671506367819935 -0.1230046278094426 -0.2687545025694444 0.07599947565718608 0.03046303482407017 0.2451693647971021 -0.3965792481635712 0.3384172850983961 -0.6484440255294115 0.7267109980386557 0.06260974999740121 -0.2652275207096722 -0.4636925444744986 0.7229786365528256 -0.3674405440804648 0.1468217026572155 -0.1779470801517329 -0.6071971989741654 -0.4350311384749872 -0.3505827193912628 
0.4386368779758829 0.2021709710334773 0.1698864620479254 -0.1705838343771418 0.4131113517589051 0.9829976928554622 -0.1506238133509016 -0.3273388160742475 0.1539718300805242 0.9665639208621817 0.1359807899397142 0.1592731173126218 0.2904304861083492 -0.3977396018149214 0.6239913212761817 -0.2212808219296328 -1.152534915441386 -0.1964580940880664 0.1970698070925778 -0.2437253626734806 
0.03553010062782284 0.4016616561421275 0.280612462728884 -0.335239875882684 0.5982908971977575 0.02293696084191186 -0.3676170092117326 -0.1371194551356505 -0.1993350425853678 0.364026474770629 0.2984001471809064 -0.04443262034835544 -0.07436837899822958 0.02759804007061155 -0.3775774849323969 0.7176549913741596 0.7754556567690353 -0.1078672497852735 -0.4851647387600513 0.05147934667168563 
0.9037244851259751 0.1348559941882336 -0.9124614527800334 -0.2484364478433473 -0.2229641353401354 0.5688389969356273 0.3820649986736069 -0.2983624179689998 -0.3632869587387523 0.6267952914852745 -0.3615507295663042 0.7418951593419343 0.2251832236984406 0.3530989125747213 -0.05001986536846435 0.9210803398034685 -1.162093304927033 -0.3970138521954895 -0.6140879251364346 -0.8008383265998891 
-0.715066388206645 0.00771946694465578 -0.0574882566671291 -0.7121504341441951 -0.3961435600707369 0.0977113403287606 0.006826834450585252 0.2879060157827456 0.1968711794249508 0.7232301296667625 -0.9175880524406189 -0.4042953109721676 -0.2053236966124365 -0.6582864240673296 -0.05610985700451517 0.8459684882825498 -0.8953580755173369 -0.1021174765723451 -0.003549520430464449 -0.588172806216979 
-0.1792703165487869 0.4301629154247114 -0.8377874690384144 -0.3010804217200795 -0.2002810631774149 -0.5877076157382178 -0.417829614261566 0.3179232279001217 0.4838363637631978 -0.2827099764542724 -0.4722810478219046 -0.3568805951390857 -0.6249821764549917 -0.8589553484025862 0.08843264382396711 0.8968005963458276 -0.7458316146197441 -0.005455677486591544 -0.8082257394945976 -0.1257061614325226 
-0.4155162387191356 -0.04789394935972417 0.04036705347073878 0.402687979503997 0.5567471604743581 1.058128079857542 0.05596142941186116 -0.1100411399005509 -0.01009718324654466 0.4313336808217866 0.02014118906864952 -0.3864323630451147 -0.2011766201273976 -0.6008865627459912 -0.04394820267230152 -0.4716579444721692 1.066392721556914 -0.3216815937965609 0.4552846589676565 0.1281880723585641 
-0.5059277541737144 0.1753752901281339 0.1714321516067817 0.1334117550023759 0.3831157739769353 0.8571645347277494 -0.8239002375039211 0.39755243288857 0.01990318593883585 -0.2576313923939482 -0.1454048744365063 0.8099245604094486 0.1087791588055571 0.4424970894093736 0.1879317401182675 -0.04599609544683669 0.6289279884527752 0.2636960647226362 -0.3782145420987145 0.6740156697343225 
0.00891397870576318 0.3621199935917828 0.1120422898186475 -0.05441831653742404 -0.2829295760955883 0.7778948641175397 -0.502718915064382 0.522270930460675 0.4012777426910493 0.3181206614057419 0.1171878672068213 -0.9396546818183759 0.2142510254453348 0.5669603904479694 -0.6007760605483309 0.02059645457807834 0.5931465801965462 -0.1022860933845705 1.212433147866443 0.1729091026617053 
-0.4828057071914551 -0.09610909347738146 0.292936504837749 -0.4270703799158519 -0.7342360049002504 -0.3941365863352173 0.464336567418294 -0.16845644187263 -0.3847867219257932 0.07060229929643071 -0.04055267751667219 0.07364305897353773 -0.1497521733684291 -0.0542307763067599 -0.03154613810200001 -0.1609102300284555 -0.9348196478424432 0.2739962664050341 0.08736684317051004 -0.3265433834791755 
-0.2433424294280085 0.1040206407679351 -0.3470291048304031 0.1582540291005174 0.5190527972170187 0.3657085315756869 -0.2089606327912154 0.3297062152039945 -0.1882472320386931 -0.1557104120611344 -0.02902475190619575 0.1683446901781624 -0.08579775596005576 -0.3357980601967432 -0.9130643425076735 0.2481193932257705 -0.4118608997023147 0.2624979082047057 -0.3525734858537766 0.4111395127155664 
-0.5629976692068739 -0.4929132786384355 0.8928149278732116 -0.7482218960931087 -0.05234134079494758 -0.8078189368595411 -0.5546297155057356 -0.1970157981166414 -0.04228708563268774 0.6738427380813478 -0.1703662720226023 0.2727067151896203 0.08996889365693903 0.2492957555698575 0.2455971981828818 0.2816006129671651 0.01040512855997549 0.1548344317221325 -0.5586214364507763 -0.3138335845095682 
0.9211458687652796 0.02463963232568096 -0.2406194901357536 0.6960757344381978 -0.1068108802919005 -0.432299397154587 0.07945033785815789 -0.3764801785360274 -0.5806640976881572 0.2667907793715563 0.07270797427709508 0.2389081103352285 0.2051927027730427 -0.8262071230525778 0.3599741611273774 0.8355827997429063 -0.3531995837692063 -0.5642310868913066 -0.2119687246723083 0.4261764993575962 
0.1227237664125115 0.5415838877061664 -0.3068658203356537 0.2551940834878522 -0.4075052866172872 -0.6007432293169804 -0.1906441127431909 0.1174340699877011 -0.1020931272055659 0.06653207039497885 0.09679071308295109 0.3330090940760904 -0.2121927902748948 -0.1368661566602927 0.1800115592715801 -0.8296795967154004 0.4236785947771991 0.1714608702682586 0.6720318711122757 0.341394598982629 
-0.09595639203941217 0.4205940894155072 0.01696008480830493 -0.5223380500654422 0.3596790385954096 0.08200335579057413 -0.874809865613361 0.03826569551942104 0.3048546050539933 -0.2972683926006295 -0.2392886001095294 0.5307957908785436 0.1510795546838667 -0.08904839270284902 0.554534880306782 1.31938971075687 0.2946314364994554 -0.3845315310360665 -0.07415567978423228 0.02239990416415009 
0.5244419881101733 0.2814834622296818 -0.00449822898598799 -0.08607602486104707 0.2316750472943254 -0.1449307764198923 0.07908012088510261 -0.3520796822231924 -0.1817987123073122 -0.9290851753132473 -0.2445891046400135 -0.3892692411613841 0.07314008586795542 0.03171542061536361 -1.039872621200158 -0.8820839653066016 0.101643978712564 -0.2319608009583652 0.7015346031025902 -0.5047105204095007 
-0.3777325574635995 0.06894607252945442 -0.2831640945849596 -0.2957715457494406 0.5576027356040383 -1.658927636595238 0.345519425938609 -0.3709767692938917 -0.08172299330576487 -0.3647315042276236 0.312328514839728 0.009855975185038317 -0.2810538350155538 0.5094958420852793 0.002882565078886762 -0.03560049636071867 -0.47390326585633 0.6877100685277986 0.3715840328008278 0.06069013784806106 
-0.1781303919662979 0.02256364389862169 1.026359448274196 -0.2898950616970027 0.4318516151915221 -0.5433978019355913 0.2471971974843613 0.7459687711128283 0.1298819101243748 -0.5351130274020853 0.8938123252276738 0.8987047928218567 -0.6126655735456755 0.1866065337377349 0.03484433874345694 0.1338130570046357 -1.081149181528869 0.1727838918455691 0.4286456762616418 0.1326218780907165 
0.4333650125748594 0.02859530356071796 0.341094071599277 -0.04756967158939029 0.1917041472054982 -0.4999762874595159 -0.7918220788273831 -1.249216061288937 0.602236036072423 0.4152185832038365 0.2167730897732613 -0.168575673061414 -0.1455644049301121 0.1231239967777868 0.11851149922471 -0.4686381256044958 0.02964939848452306 -0.2632787145371366 0.6148536699245011 0.2415502401351658 
0.3263624279038999 1.073036387899805 -0.3092010613502854 0.3947486586018134 0.6663292776351371 -0.4830833489803302 -0.3786785451684044 -0.5589798299181452 -0.109962485136495 -0.4461600760148902 -0.2954592470210186 0.7270823752180073 -0.005394805120502139 0.6446155695607523 -0.2320949053477852 -0.3946342931095992 0.538126491410362 0.1025429462461177 -0.8211783691181866 0.08344933070362458 
-0.5321788845491995 -0.7623193747083051 0.7779851562410128 -0.1485773835902833 0.1132603522356691 -0.2064890615047795 -0.4692329173613731 0.006684482030357286 0.5947145155499307 -0.7624486002711123 0.4129321962816831 -0.9845039345382824 -0.6916743301555853 0.08719316573043599 -0.1161366952544487 0.3442649768634466 -1.209405987917115 -0.5560840271333193 -0.1279925222473142 0.4005852173042688 
-0.2563868474471221 0.006416455494306939 0.6620016285597772 -0.562607144710451 0.484849319792073 -0.8767858143046331 0.4648805125020049 0.1443167355489492 0.288481799526436 -0.1177363125969786 -0.697583672811905 -0.02640547396147418 0.5041027513290791 -0.4285257570937467 0.1062659099688076 0.3890184179298689 0.7099820759451771 -0.06741860370996947 -0.1381080596513337 -0.132138330217188 
-0.5839252336025488 -0.1505506953572134 -0.05066453490733218 0.2985298312326983 -0.5596751427300753 -0.2784693293265627 -0.2671680142629284 0.4194685455622331 0.3750967657829009 0.4831714861240946 -0.04461497463304221 0.5317073952408909 0.5325360925937734 -0.06170780954582718 0.8623666855776008 0.06513012632682681 -0.114284595396198 0.08487943148013875 0.2403526468488253 -0.3633682666254823 
-0.2915592599432443 -0.6146958468894378 0.05143142320338594 -0.03694926092788438 -0.2153331154625196 0.5665353945816514 0.4776871762360405 0.3813101233853884 0.3106553808213173 1.202453827964261 -0.2645960525426895 0.03188761388188284 -0.04817657193256081 -0.4463056055591493 0.8169098038477653 -0.03487358312143171 -0.4985123528259867 0.5228583205041297 0.02299395908963566 0.2886278550767898 
-0.2944028322191517 -0.1609682491913854 0.06076940882122814 -0.2927368822884572 -0.1257314950107182 -0.09896937829213695 0.6139244346745757 0.7155418309737972 0.2116274249639027 1.065914336740963 -0.392873415163894 0.7785996959600041 -0.3696079527320814 0.3543189225350787 0.193482760655004 -0.2589097049732865 -0.3800913274217024 -0.3555072238279283 -0.1722629595276961 -0.4133057192808149 
0.2915755544408518 0.3615906470493485 -0.3236197937870419 -0.2085763232177714 0.5136604195052908 0.1363460276846759 0.4969877890405731 -0.5496227820402833 0.5788948935805575 0.8111809585326716 0.07969238922424983 0.4888103360251934 -0.01885327929028351 0.6359351128712619 1.637049212682906 -0.4024481443610683 0.2797231024953119 0.3270716108717292 0.9968904386294744 1.081849123825215 
0.6460811167001799 0.05280574674037729 0.1435342566236955 -0.02604559562978695 -0.5980750000582948 -0.09862151535749905 -0.1106586451144892 0.08256435062093999 0.02677100053099977 0.9057617311835863 0.04686983112551474 0.4397285000731166 0.2063998771886924 -0.0386641143940902 -0.08604246886329507 -0.6190776242150011 0.5889874226021473 0.1300311026368627 -0.5552034061638755 0.0818243822539502 
-0.1552597440976644 -0.2472970370208778 0.06526532791777273 0.6541124469611953 -0.1187145069885353 0.5476023018847979 0.2222051541841099 -0.1252401707034013 0.2016242697732398 0.01547354896044924 0.2351108578774639 -0.2836929418609854 0.3394653948943937 -0.7818572519640388 -0.9855031304825791 0.6652397164323399 0.8873343706920438 -0.09323059614800297 -0.170990993876746 -0.2028480406007084 
-1.323156926414725 -0.3817323838258058 0.09256257966673404 0.149917726045174 -0.7801959022643397 0.1447307235856726 0.5248887260631078 -0.5321661026715461 -0.1731138443353087 0.4777339448992934 0.3596180070324083 -0.06061075604541469 0.44597542357185 0.03008358687571194 -0.103924400709391 0.453262437219992 0.284286440121881 -0.137091717305701 0.1294047477747856 -0.4483992391255197 
0.2140704232616732 0.04273680159844054 -0.1111392732479891 -0.733531188489968 -0.9487615862069548 0.1693178632742361 0.7411728790230306 0.6447095652335401 -0.2093590525681807 0.2179498286912672 -0.2250453431284935 0.09210816819989627 0.01778889268646128 -0.2689004653828892 -0.5041364068294482 -0.05062734334810162 0.332495283293587 0.5069003263249767 -0.3920499745750746 -0.6247432254630035 
-0.2113581091816675 0.325004361314156 1.443638599677896 -0.1427826981478932 0.1657626735344346 -0.8915400764487222 -1.008995084824727 -0.03788403925822643 0.4863124255705305 -0.7432755369998403 0.7477316361482208 -0.9945810687827408 0.2830066182128873 -0.01833477982350394 0.3774571489414006 -1.031148727958252 -0.4342006849942596 1.183573096640151 0.5165573311465794 0.1301919812442794 
-0.02466502973614643 0.07113924165375284 0.408223036447764 -0.1781954439937095 -0.01301362377519632 0.1762555377833172 0.1398130400386829 -0.6164106769385049 -0.2590318619604144 -0.3152670558669112 -0.1345176035427869 0.0732526631665102 -0.2241228152618199 0.6178223228370994 -0.4966728555838588 -1.04362886474564 -0.4053727550633485 0.9198636946260553 -0.9978599125606115 0.3650132621407445 
-0.9260247496134948 -0.1218159966921515 0.1505122000259547 0.0819770172546354 0.7885035224768834 -0.6781199313851182 -0.2487646128009616 0.1376002835264527 -0.2682791394811787 -0.04113139860713806 0.1268972868565914 0.03764190180128767 0.2255958830655766 -0.7497598475289875 -0.158000188011588 -1.122275110267292 -0.2474923321566361 -0.1150479083680065 0.1702942138154614 -0.4051049488671004 
0.4025731556300544 -0.3739662041578961 -0.24775877840149 0.2319664216234417 0.7825522476879949 -0.2268969255674647 -0.1828050755380307 -0.627900002964509 -0.07490819293185158 -0.8074727368909028 -0.1857166282299914 -0.2713101729358142 -0.2685129076842312 0.912623555465723 0.04538837143314263 -0.8220919282837639 -0.3118268836152032 -0.1213628866803152 -0.271607005427437 -1.104780684439461 
-0.5699095537769748 -0.5969270723301259 -0.36114483461465 0.16087501703959 -0.1418936815742939 -0.2676517051803194 -0.2480831720968601 -0.3713040682058823 -0.1935127329387971 -0.2959346684193451 -0.1357769368821223 -0.1090487910439123 -0.01611920089881996 0.1615237950175549 0.3020006669356886 -0.5600096546982708 1.290776425324097 0.3772284400400394 -0.1171411339531055 0.3449622431925438 
0.2655092900381626 -0.7014975930186396 -0.6399517948465374 -0.2347123738190823 0.02720243348297657 0.13762131475249 0.4184177784877493 -0.1140791071833692 0.09784823607417711 0.8593715894384133 -0.7609401826509319 -0.2209794305329286 -0.1425280402805174 0.7438734896354728 0.04208074320674426 -0.2627942485568193 -0.3822363531265445 -0.1982348514094222 0.2659512343528799 0.1694726052515829 
0.6865797131161988 -0.1439188892466528 0.2306222726239694 -0.1438079464808207 -0.9651181243919867 -0.1199012589855711 -0.1849077274343978 -0.3459281522109656 0.1348621939454127 -0.8912693921316626 0.7010959740853145 -0.0792489793479856 -0.8661420313148372 -0.2904342419003109 0.1740964566994562 -0.3907133400409045 -0.1626327355347224 0.5720324897578011 -0.07800995639465183 -1.08755064984514 
0.1219025288654027 -0.3631636660153096 -0.1234513983330443 -0.3560394522042469 -0.1704492659702684 -1.178356506078828 0.2180660827821303 0.6333082967708524 -0.01630245416993707 -0.1438630829354188 0.109552945053652 0.2325950078539807 0.6625250250611137 -0.5849731955170844 1.20302169775556 -0.01725162173066102 0.1146306640932517 -0.06677958576218171 0.1698968464902586 0.08087752611384776 
-0.4435457729590948 0.08550305741644651 0.08975921795537256 0.5125854544884676 -0.7222391887777061 0.3402703280516087 0.5655148959258754 0.3671357128628043 -0.216239697881341 -0.2537499930514343 0.1561577486931911 -0.2523967734256852 0.7024660890458185 0.8535432813767651 0.6417125773696843 0.3590340937476192 1.104328090665437 0.1261353106470247 -0.1802347179916413 -0.0001791148498014325 
-0.378229205766926 0.6956875824921289 -0.1027062350681079 -0.05986758032775637 -0.3483634037251098 0.3194439443332355 0.6162122133022072 0.2039618035728573 -0.9743278706877375 -0.1407492246206601 -0.008354440522878818 -0.2377146003034484 0.195020211175487 0.05599660686523961 0.1143660568921788 -0.2492894240711861 -0.8954423838154081 -0.7490603414521814 0.6566083890562595 -0.06182649959193427 
-0.6418347929500692 0.6845145909731905 0.8849317408382757 0.2327799590562276 -0.3831727076300101 -0.7806778649063684 0.02754039669241431 0.5922125071887986 -0.6515662708006533 0.1336761421206514 0.5718506599314878 0.6015862521879205 0.2233604358952627 -0.2461254327500535 -0.2108009810401339 -0.6724635074076656 1.020207931203338 -0.1313862285201703 0.4519981207000687 0.4929061816640577 
-0.04392549017718967 -0.2322352149810075 0.8633094866842602 -0.2742668650306788 0.5616541145881698 -0.128909612402526 -0.4510563803092598 -0.08008149695400087 0.4428991636645527 0.2555053797920814 0.1902357801039322 0.421062194618148 -0.3609688863058546 0.4352261676794385 -0.06083994471525344 -0.4601042204222198 -0.3542900131209487 -0.2443656144740852 -0.3655633403858855 0.7949999174693563 
0.1469845098581444 -0.1726737425518809 0.7338152871708894 0.4602933218516417 0.05970243423114922 -0.9265035973106504 0.2028289500604483 -0.3102674964873153 0.166054913179732 -0.8413994270435509 0.08364069917506856 0.1331992964973603 -0.04284423962035259 0.04684733993631837 -0.1472938756854358 0.6636163992369772 -0.1441414722384526 0.200137066469311 -0.003560365950473061 0.1768280197030322 
0.2718759801376554 0.2915837220040708 0.614403608443135 0.3273493024277007 -0.1825157085136295 0.1911452747129128 0.9428301102874878 1.2297283965462 -0.2419290975979329 0.001616831237174956 -0.4951029196590315 0.1388779880606269 0.3730138614950177 -0.3060100704757362 -0.5868931409807079 0.1489272953042876 0.1867511885027252 0.1908848151187283 0.05927809117491814 0.4209940786629575 
0.6453800002275049 -0.5954631052458361 0.5562342219304022 -0.3274159167738896 0.3966344000859605 0.2830086714365944 0.3103216169294425 0.4653154795813044 0.426484433762752 -0.4652764397123894 -0.4178040169025864 0.8908229622539774 -0.3418405000260098 0.1639014314815947 -0.0736070873201365 0.02851494047008121 0.2569035339876912 0.2472905546462768 -0.2506798627021316 -0.1042127144839427 
0.7504864557487148 0.4383873536259227 -0.2804897649657981 -0.2862731852593983 0.525540749072378 -0.429206399373592 0.6537681041762835 -0.5252024440838492 0.09628202556375297 0.5188153356568248 0.4127653402833419 0.2336915110859198 0.3280583287042774 -0.2688594787635891 -0.383612093015767 0.3412940546673668 0.152371321292332 -0.23882144756668 0.1153349227786193 -0.2376594140436699 
0.2452790567079157 0.608514836742269 0.4376771750060199 0.3983501298126028 0.08912861654173404 -0.7840468738540798 -0.1886625445408869 0.06600776967221757 -0.9564412764354333 0.7317905327801273 -0.6148784247268849 0.8006286487233122 -0.0005139870784100554 -0.2255352610608232 0.5758280283190256 0.6626132162560262 1.213287872799553 0.761096909606757 -0.5419342516144102 -0.0192438339146613 
-0.176378592955694 0.1428454256351824 -0.5743172593230251 -0.2485620764998566 0.2412212232787168 -0.6875998716263205 0.1745728867298282 -0.9107768568709671 -0.05612528155249792 -0.5626016759420229 0.08168589127353588 -0.0519379097442479 0.197883254913443 0.008861740846604918 -0.2726283211835806 -1.331655818518388 0.308649466648421 -0.6418353561810175 0.2370896865737551 0.5046850117498172 
0.7749550789815108 0.07997915478604435 0.194088489713448 0.4869960230714876 -0.845132211451875 0.115567111257208 0.4279677837843427 -0.1558557278506136 -0.2108886353540904 0.6046076629819792 -0.6370643853939942 0.2779583115009659 -0.0628907998081176 0.3933112972888428 -0.575401549086683 -0.300863710084481 0.6464420091038476 -1.041521440510882 0.4403746216384392 -0.5133691736363322 
0.3933523479424967 -0.01406990548758415 0.6622005375005248 -0.005717845515547193 0.01620561976682447 0.1141014822869332 -0.3116565480560425 0.6107046166734447 -0.002669188298688542 -0.4509085984532999 0.02740644602809349 0.4498444416994129 0.2866748888163024 -0.4405232085183352 -0.3834505480478318 -0.1478752705010206 -0.6523016089133243 -0.3100404121549364 0.8147690545773338 0.7830367887629004 
0.2579180398791719 -0.08833005777308195 -0.7850138124982766 0.2233591165198793 0.613480474246754 -0.07504365226909331 -0.5696635979389187 0.2292696244824105 -0.007858180822050012 0.161582044096939 0.060080171464572 -0.223953231206386 -0.1911738712005639 0.2654578847604606 -0.1662597404012897 -0.8242781160706104 -0.04980643384389984 -0.7704298392223945 0.211996044276537 0.5502736015251291 
0.5920201801486348 0.16366065132201 -0.08742943801782585 0.04284722106409735 -0.3540064731850033 0.5571286233899909 0.01931135236651887 1.585662459616193 -0.201716122291029 -0.2046765455975889 -0.393270244069808 -0.09112470204093312 0.1391791690246704 0.07134774431583188 0.1863103118429809 0.599098385895147 0.4391863391273669 0.5727558172050717 0.355866168078445 0.1852324352757681 
0.1658436975468685 -0.07091503794849241 0.2448746182963278 -0.05717229512703216 0.2059669572238881 0.4265452473932881 -0.5972792288300268 -0.4739330197150053 0.2125393576346344 0.1043163059455367 0.4611433321963972 -0.0701414511593957 -0.6909243320585197 -0.5646119098691108 0.1284438545410302 -0.05845069631696248 0.5168992669384614 -0.1985615240535299 -0.02072225431675782 0.161852868697704 
-0.0206972014884551 -0.6188579809324594 0.5122960457527422 0.2468817500249981 -0.4586753731939621 0.211248535899893 0.2132396630664228 1.402051187108834 0.3589069643573632 -0.06338407031374427 -0.1184192409795258 -0.3992177750170852 0.3153629871428626 0.5122568773982282 1.009643422721504 -0.01225133498471812 -1.000848215382963 0.3941208020088748 0.5929993950043272 0.1989013624053101 
0.5655240727044433 -0.1425221001253349 -0.4735605318796469 0.1432472758731884 -0.3773447111160719 0.3048410801258076 0.7099687206629941 0.4485679340176253 -0.464147257911795 -0.243338373078259 0.4484915743077101 0.6891130840072586 -0.4718736873801838 -0.06103285917430393 1.146130037932073 -0.7681144834174471 -0.3262884779660024 -0.09519439560747646 0.1714569832134643 0.1159717263247431 
-0.384877767720461 0.1279455946113778 0.7107765884804094 -0.6200019745569516 0.4121604815616522 -0.0205403546841506 -0.3027126856482107 -0.9661677552245267 -0.08017950382194489 -0.4813287709248133 0.1371737336831279 -0.1077675450590599 -0.2326907584550657 0.2816718595265114 1.333332429113145 0.2049460134472774 -0.02771878681510869 0.1699452597281071 0.370809199226925 0.1867267589491673 
-0.5611494791351669 0.07549530535191613 -0.8982429337676917 -0.4546862640293467 0.1698107543086035 -0.909645996207016 0.7176429106327633 -0.8848442705031585 0.3788872018025641 0.2058684689324491 0.03608770324181618 0.1596830826654139 -0.1535048865472896 -0.214185345253253 -0.6468510679829873 0.06938563026431692 -0.2632421837151824 0.009183175377795103 -0.007063607496560459 0.288589935336575 
-0.09199310206512255 0.1561663440850329 -0.3370823061544142 -0.08743893570681645 -0.5097340992808793 0.2448194511210697 -0.6007308619106307 -0.3847549418021789 0.004024482255269469 0.03120958101673965 -0.05693322548288079 -0.05370886321065717 -0.326557459647738 -0.3612965636789544 -0.8665028325346599 0.2037444523266219 0.09559286863891835 0.8818491187887177 0.4230475086526093 -0.5097182581659847 
-0.0148813985143709 -0.110570200537377 -0.4752135708106964 -0.3681929723322521 0.4217080355527953 -0.1634715387783449 -1.571826704823136 0.1367416150650104 0.08674355747905778 -0.1087901754166467 0.7883948566554625 -0.3262690787846525 -0.006334677382715311 -0.8479228709416207 -0.74480838277138 -0.161417471029473 -0.4234253951688004 0.04714912361610887 -0.8823611685139281 0.5194167718752966 
0.1460116879220477 0.7605739979850751 0.9507529312839992 -0.1403423609666703 -0.3131433849204103 -0.05460323344347205 -0.5209547448905442 -0.2280097913396659 0.2522568359162277 -0.1674752832660637 0.3287043486096256 0.387788383576564 0.5939696130049554 -0.01097713693808433 0.2694182395800326 0.1457881332741308 -0.2268643714366278 -0.4310364330963655 0.4243135386450925 -0.06443643402964395 
-1.084217802782179 -0.2194296855682691 0.1503489681437792 -0.186115486556241 -0.04717821211107439 0.3939915129040314 -0.1872834941383419 0.3277512156648439 0.1296486894449987 0.2237450727344523 0.4419475060486826 0.2814896072086521 -0.912204316360389 -0.009372611413946453 -0.05173644875853792 -0.2514337258962651 0.3041669768880259 0.1378665369876664 0.3968994015355672 -0.6455065725250294 
0.8641824604553642 -0.5993141326956289 0.1061103530114431 0.2502075645002759 0.2105134073213172 0.4506863707708194 0.2046237263953854 -0.1316023736404877 -0.4959328856134559 0.5988186784767217 -0.194729092105412 0.2621339583098832 -0.1246015419383508 0.151816837540836 -0.2220641904415644 0.3497438300343275 0.6973134193539 0.4676678082048884 -0.5905626541839555 0.02284168456748518 
0.06965615217603885 0.2681420475041553 0.6407796425532268 -0.1216196845894982 0.1422643037650084 0.501600191001315 -0.5822785271153884 -0.3687216286404804 0.1658325030051923 1.221063016877384 -1.050090381604485 -0.6321555194527352 0.3081179229851913 -0.1581601424267349 -0.1773458239197272 0.07462270956452106 0.241239321194257 0.4372287971677018 -1.523424021592939 0.2021327587211479 
0.3270574128428007 -0.3551408359793746 -1.279426204779816 -0.06906424257711626 -0.1693578727647161 0.2181008636519419 -0.142445216668159 -0.4533059828025336 0.2731277441813706 -0.2336557878792999 0.02040566085423731 -0.4114565996723019 -1.287671190232126 0.9308927954307314 -0.9039650707141541 0.1559657267288358 -0.1022097320675475 0.4901443776853782 0.1803348011699393 0.08340392022861183 
-0.1152232942665998 -0.1433607731491489 0.5887333022972085 -0.4499716757581758 0.1293530393877743 0.34749101509451 -0.08221116572671676 0.3575435523192074 0.4888754500688556 -0.01629804982761491 0.3864227082983994 -0.9031502530339891 -0.9752088159960247 -0.5252004454006418 0.5279685886956994 -0.4006668098488665 -0.005778262362301616 0.2016439302910564 -0.3011705043303919 0.1176112493030533 
0.5458215500645005 0.6161059950450772 0.01501930513598592 0.278614386150868 0.5008670398508687 0.08698155801776453 -0.9855598229945083 -0.3086248462492303 0.2823097666081192 -0.5295923184970365 1.922831913357194 1.329880231477846 0.5008207514203513 -0.3397509532798038 0.8517492134938766 0.6511036307646985 -0.5182623121712564 -0.552757516567655 0.9174558270961969 -0.1358461787455395 
0.1771150324857309 -0.5195736398939872 0.3790813121040723 -0.3533776713768503 0.933586107326006 -0.3335501602050915 -0.4006043310677149 0.7014050927566946 -0.4438577601300217 0.5177541006401347 0.2802170645665444 0.2524207252398352 0.08218046174968492 0.4881354438251052 -0.2918804066882826 0.6406541684885445 0.3093787973570527 0.3106803896375329 0.1573650537896571 -0.3589399537608107 
0.1803157542446003 0.18970636482143 0.2138763365284659 -0.09472939159453098 0.4822831274743615 0.03040530263278341 -0.1310756543069607 1.182721098899357 -0.1016026835713024 0.5984787474259674 0.1153790304522122 -0.1370825861731027 -0.09337977899555286 -0.774572005613319 1.13165958165603 0.3003723007073169 0.4184064608708175 -0.2246798150228654 0.171213582067759 0.4512445782939948 
0.2943794248287879 -0.2117017138652604 -0.4782630777735113 0.4381231596149636 -0.1278008693867063 0.3150507294862582 0.1112749904432728 -0.07736742982420211 0.1547566638035898 0.01936800776158086 -1.059940565067886 0.6179953390281439 -0.5002120844687376 -1.229846322277186 -0.4803115851820184 0.4644948419900158 -0.1057538568789114 -0.06146898715029336 -0.9163567621818818 0.2761641217321218 
-0.2118396727221043 0.3465475975525028 0.1738717364481372 -0.2084612342721456 0.1755817173467319 -0.3389974722472819 0.1885129093349748 0.2966733615432752 0.0001257206584191995 -0.1244461606657898 -0.05088338840423208 0.04578548238456517 -0.005278608634812791 0.5037052539576149 -0.6241179515854726 0.1097109400732821 0.9104255090366478 -0.58455018550989 -0.06879169085246124 0.0417104950141746 
-0.8740457158514832 0.1348032078106147 -0.4717708338621213 -0.009607402373685609 -0.3813399984387078 0.6140474325074625 -0.1497076805090982 -0.01651867197875044 0.03642329575679677 -0.4991226978353912 0.3179216419261752 0.3333160890435706 0.5972368764919549 -0.204401810572695 -0.4772856053603122 -0.3758561141303228 -0.1371890966962119 0.1416795374060554 -0.2909397508222654 0.6277517034931883 
0.1923252711308868 -0.1642394177361558 0.02894652852528319 -0.03672940165114183 -0.1318421106195556 -0.5683314607040002 1.108266884642007 0.2456648172632362 -0.2486980195910778 -1.13975686961396 -0.3425566963866603 -0.6263106114962189 -0.6959729583235643 -0.2789669126268767 0.2511577997164275 -0.9522055823108058 0.04710984491101543 0.2637078075876423 -0.5012054071818448 0.4102246065788021 
0.1610079617356882 0.1213295005779813 0.1850523125930143 0.489643164981297 -0.004534428619700543 0.468623613057744 -0.5009226030607664 1.510170686582661 0.139425245954509 -0.2144785980731877 0.4810520642122572 0.2901487091136265 0.397318868604217 0.3363199542908762 -0.3061844688042852 0.04457500113681067 -0.01548444009000671 0.1586467600119848 0.2226529155472941 -0.06180655203468797 
-0.003245861971682015 0.136088240991648 -0.04637672165540762 -0.2241946764269055 -0.2863839893029371 -0.2340365319041312 -0.2599902589714974 0.5980736373273412 -0.5310967327181254 -0.5130970068855721 0.08316303351653781 -0.6314303777593874 -0.3233551193101379 -0.3600072309885524 -1.143179299755131 -0.8166440807720871 -0.3365302403572414 -0.7324988483394568 -0.4265026418501491 0.09516661065240366 
0.3233905581787383 -0.02070891540231062 0.5639325694150856 -0.2059078644010836 0.5083452106288218 0.6423903236897751 0.2165867038190131 -1.150845483794057 0.3213192512718183 -0.01325541139724528 0.093538594692849 -0.1812340311169331 -0.5073135186505003 -0.4267815276029426 0.6578521156991699 0.3403041590796577 -0.03421408453834728 0.3781843187146057 -0.1202890297256769 -0.4759584720431896 
-0.8404415595209006 -0.5744139755086937 0.3047240410216292 -0.2220700037671035 -0.05762204056416965 0.6400958870173967 -0.5385687082843692 0.7102442082246646 0.1992423625233442 -0.2779075473413525 -0.1054358914222661 0.6539655843576343 0.08207419028694124 0.04801849493016615 0.6117982383318116 -0.6674118739490871 -0.4069917838223685 0.2999938439748914 0.1696253570653944 -0.2245699920108853 
0.3137910828803426 0.3301500663990936 -0.004361252400537898 -0.1746903315346494 -0.03046130066078866 0.219852096651787 -0.1851741872829212 0.5936824011628927 0.1212866101054409 -0.2848259882934536 0.7226127482092772 -0.03132742683039368 -0.3655924908074016 0.6590293860855059 -0.488816413957633 -0.5215075061699068 1.475120891128244 0.3006664941403767 0.9996723076624098 -0.3903837747699655 
-0.6514991976758004 0.05962714222896772 0.4567390285400203 0.0583341019713258 -0.8580002784500621 -0.1273920578207062 0.1080456504030693 0.6685068175878583 -0.0166061514592065 0.614830547926599 0.8092316060655667 -0.001597765131013629 0.001775780469625104 0.183719957206814 1.152901432277894 -0.4197899480946922 1.009301044932186 1.111962254633283 0.1883759650095416 0.8330407407368281 
-0.0569569105352867 -0.09469137979077845 -0.1100660133567159 0.2542219837174209 -0.4772433201455831 -0.2413917960606178 -0.4616236761106139 -0.04263278793257874 0.3232482156182966 -0.1051254262634342 0.04553673293418053 0.4945156121843237 0.06072805560173109 -0.9418707374183913 -0.3020180203642325 -0.5130612988625524 -0.1380001234730125 -0.1959854670336851 0.2430757412851562 -0.4837294647694987 
0.19859583505395 0.1398715759972505 -0.4809186406660541 0.2747659966883026 -0.3102414189523939 0.3633794444702118 0.6065211389111942 -0.4654547089786288 0.1279997788825799 -0.7251932821112771 0.233838342865625 0.1267245694580594 0.1071854087441135 0.3433800309939162 -0.1650333159337932 -0.5537130202223288 0.5409785519033439 -0.02342611468412607 0.2933641524093985 -0.01089666330715217 
-0.608763490990794 -0.3604403845837146 0.1220955971126921 -0.5427669970233983 0.5127600737484994 -0.2888615214525359 0.8438895965077744 -0.2276529519437357 -0.3563641788666996 0.7156569787469558 -0.1511091445777978 0.9852840962201677 0.3211390267312035 0.06907066067964884 -0.4001752504695185 -0.3081649148905126 -0.1004778592696316 0.3047319219192506 -0.2005136444156115 -0.2842960263041562 
0.7314707680317839 0.5854064626545508 -0.3275171289664907 0.112375888037232 -0.600270845129849 0.317104515819995 0.08088129107734014 -1.230489149770967 0.4974914200987608 -0.94755134350767 -0.4464706369559689 0.09193179697613056 0.0134216841824637 -0.2553080152047638 0.8929359034705255 -0.07086147517498581 -1.425035552321364 0.7227274466773009 0.165116372579262 -0.02958357171124472 
0.221696832376111 0.5044181440681372 -0.3093456952323374 0.4528741180628611 -0.1162409305894523 -0.2167292059038138 -0.1384092235474002 -0.002969436095685774 0.1481920698396985 -0.4011306347750803 0.1022997058691816 0.3302134964103339 -0.4986782495782514 -0.7800392257070413 0.2315063878330121 -0.1206513815686443 -1.537545477807291 -1.609573126727718 0.9850641285323039 0.8154300115498548 
0.01667346703730503 -0.01581893719461797 -0.6910144521095913 -0.3945062699740245 0.8496627721755718 -0.2414618663310776 0.009546417929273528 -0.8790856327478455 -0.02205558533612027 0.1501141151063358 0.2614482339506201 0.01869792263527152 0.3366766888468574 -0.5823665640657699 0.04990697197534351 -0.4548208795841632 -0.1547587040512669 0.4563058417383854 -0.1261145451489668 -0.5580022627419261 
0.123526333043128 0.2407060754054227 -0.5977630091588056 0.05593943209998396 1.283693236844954 -0.6966961145492223 0.3825493172878244 -0.1318774485910441 0.1002046081314445 -0.3377095380212519 -0.5224943202357222 0.384432986713576 -0.5257937915397172 -0.6061544067400726 -0.4844231805948755 -0.6542311148848101 -0.5353014321612521 0.2995780823691435 -0.7626731958028539 -0.2187646755865315 
0.456679965162355 0.3893339244712196 0.4021036797034136 -0.3186676849176365 -0.7749560224155347 0.09932438526649562 -0.02973293330005633 -0.4791475486142536 -0.02578815692815933 0.5479506861389261 0.1040365865783926 0.1412078873469094 -0.503313181520368 -0.2387196040849839 0.6128564841868531 -0.04016322060851615 0.3129898524559453 -0.08987842830364784 0.4097875860976396 -0.3108997100205105 
-0.09016515358484986 0.1650483004544702 -0.723572086911808 -0.05527065550383778 0.2008408928757814 0.626527890782609 0.1647346619166737 -0.2926490708810097 0.009307209992580031 -0.05820160690134064 0.1652909044381696 -0.2933606192751242 0.7085102825008589 0.4184172008533546 1.132411502640342 0.5085442492848407 -0.09813175253628345 -0.3692100580545736 0.5781962788405371 -0.0495684394961338 
0.07011518062279846 -0.6557629300447041 -0.1617973294279218 0.09688322836171001 -0.1583329074083458 -0.3047867516991201 0.006747101289436596 0.360738909973628 0.04828451979451479 -0.6209591703995028 0.06896310956556652 0.4428355728351545 0.2809082141139535 -0.1183832764603653 -0.2304390437789276 -0.3695880547073651 -0.9130781640205321 0.0276932806967632 0.3679627017751954 -0.05220168076215653 
-0.4878337772060223 0.255258620614314 0.2625530320297901 0.1942974669421367 -0.3078626393754377 -0.01420420695525383 -0.3369546619289636 0.5842471948106358 0.1951541988680808 -0.4141373397689935 -0.3762187832990011 0.6953547011933882 0.05746417173844449 0.9621153840564687 0.2534847310498906 -0.8045526100436192 0.3529368420949278 0.4368387870152571 -0.0006614588529506651 -0.2110836475087739 
-0.8464611448832848 0.1976798618547727 0.3148930352875158 -0.4099928417926246 -0.05635531163939696 -0.5426719476025864 0.3369011481156053 -0.273089420629706 -0.3471227236069369 0.5285199511917628 -0.2137496275147872 -0.3058380635454968 -0.4658200098655797 -0.07342648344353862 -0.5463491727863741 -0.7821654904736212 -0.2815778945712011 0.132959324003015 -0.3479724030012885 -0.1344626001500695 
0.09782117544235013 0.1346446937814055 0.115027651268768 0.07569954270429803 -0.2507086058172178 -0.5664282818627309 -0.461360023780397 0.1543493948351999 -0.2790463005995371 -0.6309979225093181 -0.3519390812754173 0.6720819446748253 -0.5488139171140554 -0.0775917953389392 0.01942105154835334 0.4082175426685962 -0.2584327841360275 1.003017648239354 0.05984827265566241 -0.5192743211329134 
0.7672357879945185 0.2721181032177439 0.03103523766808387 -0.2070653738787252 -0.2938652915282947 0.05532336443993664 0.1888041023954373 0.8860979398830555 0.002655700066192463 -0.5366597985138222 -0.03238787299259277 -1.103070511915727 -1.047807056467084 0.3032679670268169 0.3916873768911793 0.0334768312590214 1.099349570968333 -0.3467807137556547 -0.2539696068754222 -0.2518278602129567 
0.4487116994385091 -0.1025987289998152 -0.04865324822630813 -0.08166174868799772 0.1845641783869943 -0.08419864444183764 0.9785497032205167 0.2346276865737574 -0.2070336763680296 0.2759194620199139 0.219241243650189 -0.1041905400205106 0.09254780915178684 -0.3437864133990024 0.6341850868576517 -0.3725990147041924 0.905357137855494 -0.6040569973445128 -0.4391101031958264 -0.5880911974816312 
-0.2078760902762204 -0.1903046026920211 0.327640721982784 0.08837413796519182 0.04441383220638086 -0.2800026729964532 0.1643808964675416 -0.2503850910763054 -0.006526542632099911 0.5340622785076555 0.05562573822392361 0.1056741059471867 0.2252875853660385 -0.2853718219454925 -0.1275753473553738 0.004942927941686751 0.1939180677094258 0.470197158179247 -0.09995100363667296 0.372560719794945 
0.1890167481608674 -0.06449675235889034 1.033407146145465 0.2343195031702071 -0.1491942428887909 0.3270300390273452 -0.3164340281641564 -0.2526930192545664 -0.08007898576607922 0.4723165209593366 -0.379237908920758 0.4939569586807121 0.2563024653326441 0.2202903241339864 -0.7906285899414507 0.7366219564275212 0.1962133590491477 0.6240643289158222 -0.03442129290032678 0.3171433169255514 
-0.8135975593715676 0.3305958814794627 0.4161901313055181 0.07096873237368677 0.03045211102907881 0.006814544688540218 0.8651852588578963 -1.544356740280811 -0.009113597739936667 0.02093911916718412 0.4493738066448267 0.2095528224323042 -0.08354999683984388 -0.02734355279069256 -0.03727138549322138 -0.405726910177634 0.283455781441584 -0.5072737053790678 0.822374240076779 0.4734372713138132 
0.1863327220492443 -0.3517006246743087 -1.115603897488179 -0.2168986307803489 0.9781892542424824 0.1661473016181324 -1.042287834536766 -0.7586775988559606 -0.02441356077394647 0.2403985060527362 -0.1678377252515073 0.01374684588562813 0.6362182607829514 -0.1530496570976858 -1.180733794505203 -0.4835582152665081 0.05974474898320741 0.698471520701693 -0.6940525890563317 0.3960661287741377 
-0.871354335902669 0.2750674688309181 -0.3987966562896254 -0.2759301724710266 0.4126519385967067 -0.7699012183269521 -0.05066785912776357 -0.623664825716252 -0.07530720793816718 -0.226827266317978 0.1836426803727823 -0.7574610290112584 -0.1340959022531207 -0.3562349626971539 -0.8106787626180916 -0.07562478464984253 -0.2846506174568215 -0.5855767687065343 -0.7530197929827068 -0.1345337926983835 
0.2891119284268205 -0.2555289304496824 0.895118471181923 -0.5409135517031907 0.458818428721064 -0.04562046358397762 -0.7469193224371016 0.2353981421471818 -0.05079804024927061 0.3919303618582374 -0.3632020268129242 0.3845327761357897 -0.2203510174087554 -0.1692423001808124 0.769280291893375 -0.7322944868106404 -0.5520100213033119 -0.1373258852974671 0.1554571311395687 -0.08301218743196893 
0.1197789803415592 0.1873238066523011 0.299960430082072 0.4358151546415807 -0.3120162395620347 -0.0200989770570644 0.06357201847102963 -0.1100949962506735 -0.8724821093072962 0.2517821090082412 0.1836275631595192 -0.3152136565997731 0.5088184328885162 -0.5727289634320641 1.700163449028411 -0.6335856117780885 -0.4065159527819134 -0.8405608055113918 0.7360504711939895 0.2736349079646833 
-0.5492528011416599 -0.1036568300847717 -0.5978768457372601 0.009907455833445577 0.9688378445207323 0.7904765043914598 -0.2958166586488962 0.264422574927097 0.1013092663760303 -0.4330633098423765 0.2205141113870099 0.2954923064172074 -0.03283434057797108 0.2085722599380141 -0.06326303999280701 -0.3916677673401379 -1.121026823569835 0.8652889614051822 1.029219858556123 -0.2026264532960783 
0.641635043909772 0.3924920693366784 0.01396730876546989 -0.3319324361205543 -0.5355981586108478 0.2576151150382701 0.5732995257961093 -0.01666195780647981 -0.1398983619105849 0.5850173748800331 0.1870250500672135 0.2539200069404535 0.0879436576489222 -0.1263646353327494 -0.6825033826988746 -0.5558132378405933 -0.4298161276206087 -0.04540711085817808 -0.7253111807015641 -0.08987872581254347 
-0.4990921176358413 0.191660117968085 -0.0265056492900733 0.006039555978488121 0.01183735131525942 0.1081124086706612 -0.2801157010634421 0.2173338873770966 0.002290285351599511 0.03734179053945766 -0.1395303702165406 -0.1679710459463749 -0.00904360366964696 -0.3157714818938632 0.532937704753128 -0.6853360581312303 0.1864540816415842 0.5331630252795029 -0.02442669130013654 -0.08118478666796462 
-0.6534366805097611 0.4943884293036346 0.04429984268044478 0.04185751498182912 -0.112391903404761 -0.4810902324672209 0.009993083481809471 -0.6773306381083813 0.132256515670863 0.6810317004131078 -0.1875563122801926 0.1618617077219383 0.5429856136522443 -0.5345443114192687 -0.2105166213306776 0.6682304816649611 -0.3466409391628096 -0.7574998520260328 0.6349259050433603 -0.4572244138387565 
-0.6805657808440307 -0.4029331289758575 0.03813867593950846 -0.277781946287782 0.02238173929805543 0.2483684550408887 -0.3812765098001057 0.1309754964861082 -0.1417757789270369 0.1171476808573202 -0.2402619040241308 -0.5593010356985109 0.2558838713850327 0.4149370533229846 0.1827679175127802 0.7177550255853564 0.3772698077948917 -0.5535269753739008 -0.269236101775935 -0.5610315503311688 
-0.09403670499837845 -0.02654997456839466 -0.4856931750434728 -0.05823597208442154 -0.1446674798284634 0.04878557986907092 0.2710151960718638 -0.291005725669937 0.2759601220814261 -0.5183041528441594 0.1092252980892726 -0.6414338282774438 -0.2491551425768674 -0.8225979521589152 -0.6064234763834702 -0.09898102289195079 0.3607848180588169 -0.03999241689936296 0.4732106192546712 0.4861280857505392 
-0.4514835918457866 0.17988050971972 0.06033794692136478 -0.1354185797771668 0.09198392635354355 -0.8154490495622967 -0.2591619107542428 1.066517871005502 -0.2575472843575587 -0.1768381562260609 -0.08145612063154449 0.1507939840676318 -0.1834317137511456 -0.9365988758559597 -1.232258942711785 0.1501063795720546 0.1364475004942817 -0.4147990642959124 0.1936031997401841 -0.2449870545774935 
0.4495560777114399 0.07706010148402152 -0.02124966820468323 -0.1107530744660762 -0.3914497501625456 0.7203591913784286 -0.4621348822478161 0.9885187575462087 -0.2573270674176825 -0.2055511569597628 -0.3385283589374407 -0.2606156243311143 0.2169430874936777 -0.7886937333216747 -0.3934974712990404 -0.7633869382664971 1.102694781652066 1.482083889965547 -0.004592696127438824 -0.01105084125304159 
0.01296570516459613 -0.06070667788309372 -0.2813072037714967 -0.5791560834144216 -0.2488927294038817 0.4574286817217537 -0.4863353562659031 0.115075425603982 -0.3866150813786883 -0.005520084163363136 -0.2351211950006161 0.4601092949901137 0.2455230081071806 -0.3494325800165463 -0.299760229469325 0.7533000905423222 -0.3162382113973253 -0.4167380448391818 -0.1514059001357587 -0.1732661017095552 
0.5704067905014325 -0.0784274466140962 -0.6442081200849039 -0.1828128596863146 -0.1348852643463664 0.2029134269980148 0.1876506598525987 -0.6173446703801276 0.03313200869838541 -0.744377507038763 -0.1745750878650411 0.3713584388028268 0.1045714780160613 0.3387233293913096 0.5834327358825553 0.3072486111472787 0.7517939396898659 0.3737439620283873 0.3971736144466479 -0.3199480806523347 
0.01249801143553393 -0.04771951416855088 -0.287378120665743 0.5902597423262919 -0.790022393110677 0.2702691923003384 -0.06880834048249852 0.08126006065872796 -0.05031987612814881 0.1615688925952087 0.1844060588243663 0.3047353725853837 0.3701709890329767 1.139639943426084 -0.7580552006527509 -0.3063512376272606 0.2366847176961074 0.8683351888973557 0.3713436978642753 -0.2979351854122718 
-0.5176931549594684 0.01489417348287286 0.2012562395832381 0.7682526390080631 -0.04445195047602029 0.4314692257912712 -0.4954624069477828 0.4375600606204994 0.2605262065257002 -0.2380318111420917 0.2944988878190085 0.5922104662273786 -0.385032720061528 -1.147525289919309 0.404841036619185 0.2733330194534433 0.7749051923453711 0.1036931755252637 0.3989514892981978 0.2259270591830551 
-0.6340459192672439 0.4414017805370438 0.1174912030853493 -0.0587108145277075 0.5783031338135177 -0.3119300711295506 -0.3155633140464984 0.02810635071398091 0.1505531854577315 0.4288355703727476 -0.6422909766636964 -0.1976683317548454 0.07336052651445198 0.07662572721057373 0.4400867705661038 0.2001601908280425 -0.3119718493454522 0.8944180861946118 -0.1644578279035976 0.4739003961672826 
-0.2122680654498679 0.6227615193450583 -0.2132708864591769 0.4612053518986588 0.3577857584198291 -0.519300881652105 -0.02865388069688761 0.3854972113191543 -0.2032561090539231 -0.4788867388527248 -0.1598298646273943 -0.1671126187979881 -0.3437078195133946 0.7479687708447156 0.0975948208701343 0.5412778057763489 0.6370569052440558 -0.05388356012261475 0.4579686757757491 0.03573819510207185 
-0.1191329426901106 -0.5216349387549991 0.3703674299496457 -0.01315379293703843 -0.0883955223963075 0.460489609321959 0.2046882774503519 -0.8510610127847423 -0.2483244610837322 -1.105121476737243 0.3007837655421395 0.3776257757333488 0.1328871134663894 0.2641565439884947 -0.1193010854894763 -0.3113066022006591 -0.8816791032853778 0.4790428379163407 0.009999263190314252 -0.2277389261423823 
0.4575324413523879 -0.2922554327297295 0.3032336022705981 0.1684746199794954 0.7491126906043668 0.1508026234368207 0.370348191830599 1.314449389563384 0.3197403163531795 -0.8067680671707695 0.7972648470647549 0.1884791938148938 0.07905384132307469 -0.2343286727047245 0.0976876200603745 -0.4635687856417504 -0.2608498285816013 -1.002758464225192 0.2793865330077793 -0.0557414188731867 
-0.4578862305121732 0.8889980078348403 0.6497405627480136 -0.1759348735745135 0.05151265588953368 0.07736895701999189 -0.3596050726839871 -0.3631937953784856 1.072491934521786 0.5787687474633905 -0.4972972489350814 0.1511951189569979 -0.8052989592257431 -0.507812547388795 0.1530300337143463 0.6850775723409031 0.07633183048858484 0.4611224298655549 -0.01675928091614016 0.9743497602343438 
0.188392211500462 -0.06506819666609501 0.5367627588662853 0.1949283374116088 -0.01440518272324686 -0.2568672588636434 0.1380393044485126 -1.075021754336714 0.3874594321900713 1.173336056984753 -0.4547598018610783 0.5432598903472263 0.1970519283318777 0.5291317990266156 -0.4009428883779818 0.03918277560952618 0.3578518289404554 0.7627460022326075 0.1041495554014726 -0.1746755086233328 
-0.3228300138702898 0.4772636646751546 -0.2543686935617412 0.5686196471377736 -0.3159905047451645 -0.2543160030538464 -0.6400302267242979 0.1244909848174052 -0.06898525137752079 -0.4433557043879744 0.2137069466119821 -0.245382339898669 0.6236849953902404 0.2864663749700712 -0.09182471268474507 -0.2359990875060304 1.267925102440518 0.1555586579793515 -0.3705424724058133 -1.014325328740977 
0.02521076144797772 -0.4214301738521378 -0.199300957982716 -0.1515266524368776 0.1510620548303871 0.6252702759151433 0.3922312402299704 0.9804336492265001 -0.08634579431559483 -0.2009310467071155 -0.1293773096978425 -0.3156168200373037 -0.2269796671689966 0.5020353565590268 -0.4296927757914865 -0.2552002576236069 -1.109194556863 0.2542104028627399 0.07110340477959617 -0.2010691512476663 
-0.2163287276469202 -0.7058282130708956 0.6568302611379014 0.1287949420252782 0.2746456313203002 0.3069849866573393 -1.132048189901014 1.279385889586758 0.07112484128072771 0.6616943602727643 -0.1533460820430238 0.2425249780824057 0.4743271031403474 -0.2915183083359873 -0.67281962200399 0.4908693253812902 -0.5330949552897852 -0.2031753909054729 0.6465862048696912 0.1746045669083846 
0.1132836584374481 0.4593788834905935 0.08894972938697858 0.1017239002859183 -0.1238138343466234 -0.3709173196523065 -0.3680914340404757 -0.4856136142694761 0.06393718820379392 0.1460990187831814 0.3172035892484353 0.3822769633309106 0.7048973667249389 0.3923832178819315 0.4350521722649522 -0.154636567343981 -0.7192654026801852 0.6885381765142764 0.2614212619297961 -0.3296823438802061 
-0.07263338307833292 0.2336547522383659 -1.132398264237897 -0.6989983836818588 -0.04085343466494121 0.7396713557439758 0.1304282559936009 0.6125823147003309 0.375326900590457 -0.05181620799728655 0.1248698901868705 -0.2506342815938611 0.2260795037335789 0.6918069433922229 0.298830963752954 0.2677549150243119 -0.1226513558982968 -0.2235776111317547 -0.4472783832107646 0.8241539797773234 
0.168665686511494 -0.08551415583100888 -0.1257799626918121 0.1552320262467746 -0.3926622342348292 -0.9303048667614509 -0.6047898331559346 0.6026342949103835 -0.1390782169037491 0.07542228359947233 0.09077233988453771 0.8159743038652679 0.0162065359424036 -0.3385278719955064 -1.323608832542717 0.2699732561851433 -0.2184372997812669 -0.8087263280685759 -0.5966297390349189 -0.7638513710143715 
-0.2192430962125669 -0.02726952460407969 -0.358479063471133 -0.3018790977350311 -0.07885881826084469 -0.5303505594439002 -0.3935801306267177 0.2363818498817521 0.003447958715822563 -0.3123861591771058 -0.1933787323902822 -0.1046477782377109 0.4316214396663884 -1.165054140123321 -0.1019730616614024 0.5270572172132586 -0.189248239689509 -0.3792127101216043 0.8798577895348696 -0.8854573121528496 
0.4425545343120493 -0.1989710776107354 0.2385624919093423 -0.007988272335348814 -0.1152801418620663 0.583365100273906 -0.1542384751443171 -0.1146901674973072 0.49788716607849 -0.9252054857719433 -0.05062431018471081 0.3261479121600019 1.030998567388061 0.04859651931248377 0.4904568626914988 0.3453858827109116 0.1808767413505253 -0.2542836696964644 -0.2556639891225503 0.03238844786027999 
0.366955869007111 0.7765627268003022 -0.1852917038254641 -0.3735930268157565 -0.1949270516831411 -0.03168868130837146 0.2086034954468688 0.1202804980333582 -0.2452285527239822 1.087860301747383 -0.07454592867364086 -0.05744807693384422 0.6970575417132278 -0.6949198288417827 0.111366774502507 -1.116402153681238 -0.4766217617189035 -0.7121784933936863 -0.2028743481842208 -0.01661779605166877 
-0.0009322508727093691 0.1070889521900692 -0.05360004326876022 0.03890193800889134 -1.104349022930607 -0.5501808734947311 0.03210755088095119 -0.8175185007766672 -0.4009085920185577 -0.04563230506914227 0.06773818492006611 -0.6308021842542139 -0.2714186616071348 -0.044818268082722 -0.7656747394879099 -0.744632275636655 -0.7304516197944526 0.009798535164189104 -0.4100806661674566 0.49574741919996 
-0.2446031780204646 0.4853396149263906 0.5817694643549782 -0.5967568942864194 -0.1578788415223663 -0.5653333265948769 0.7282043414769275 -0.5418630479921499 -0.1548616279293526 0.5094899182216661 0.6417929971360832 0.02094425834032988 0.2888181431952669 0.3939343507032003 -1.175486878294803 0.1105699691492888 0.3997646277382653 -0.3086036548607661 -0.1484578430567326 0.1479124696020481 
0.1496124900423977 0.03561021715100997 0.3225273652419418 -0.7390257407227581 0.166059220498592 -0.268968762868578 -0.1601572943710571 -0.5125082562648259 0.4396295400494964 0.3277635382080898 0.4410145218400652 -0.4366741540669338 0.2393469368577701 0.1389526691270931 0.5855452343567232 -1.049599473452279 -1.208914095265087 0.2381188486886663 0.5362611897586156 -0.02561313429846808 
-0.2851374720867111 -0.1327310143079972 0.6347950622139096 -0.1851247313532783 0.07839554924947345 0.8749800261627 0.2687387327427996 -0.3293230207687832 0.3051720118349345 0.2482149549841205 -1.117137605037501 0.8726351357944708 -0.02110499030420758 0.03069233716162149 -0.2129639866374559 0.518288383606377 -1.198111229546261 0.01818773985647332 -0.5530196963759134 0.2567949283538221 
0.2971939413347811 0.6174153031725523 -0.1442319397587535 0.05713575375036045 -0.1981867659328299 0.2194529240166463 -0.7774276115441622 0.01317068573776941 -0.6239414594414229 -0.2983246113079998 0.4593633423703479 0.4298787664248366 -0.4883741916655406 -0.01378927434073573 -0.5243141483882061 0.004391811381587736 0.2112405401924939 -0.5763199943448494 0.01229348092559465 -0.391869339324224 
-1.112177397680306 0.6991144250578191 -0.2134849717816745 0.3423829500746015 -0.08302735107251681 -0.2248982507152806 -0.2407522618674059 -0.004944968057895141 0.1002487179854126 0.0798397574122463 -0.3879970123475271 -0.2653832163811142 -0.08236036900081663 0.3027666348748631 0.4292030541749354 -0.07910386060907619 0.158351204889234 0.4280389657529337 1.031450794904618 -0.2683295169961828 
0.3744502850472986 -0.2502634831038783 -0.4637917066609561 0.8294145549636329 0.228066683473955 0.1049085790794348 0.3435667611973859 0.5109918240449183 0.4827674532772637 -0.3313871254803745 0.3137527605836398 -0.4364023988998018 -0.5314330355737277 -0.2795047228140151 0.5482293957123425 0.7162933003721569 1.252882810279036 0.3659230366272352 0.07511689249895787 -0.1220378889550036 
-0.8779474437669155 -0.6503863416271753 -0.3699243704881093 0.02847611583047955 1.016407936997991 0.3518215586097656 -0.03893461394947229 0.7839758715280438 0.125359504432125 0.2835688918689113 0.05931663589445189 -1.030855454317454 0.0727262140753438 -0.4970532055367822 -0.4248415673796494 -0.1010383548268939 -0.2937187162493652 -0.6063735418557804 1.219600624252006 0.129779638431337 
-0.265780396971524 -0.1454502413836128 -0.6581352990468414 -0.152459847500436 0.411495423765979 0.3595422190554327 0.3803768377342175 0.7319248644967336 -0.4021857162637636 0.4676868709514727 -0.4926867441456662 -0.5028754099867667 -0.4253287674721564 -0.5101035216692921 -1.319149325288661 -1.302708913057159 0.07042055643153214 0.1563520326199527 0.3584366378567907 0.3706873412154996 
0.4330163227474179 0.6855490156189484 -0.4007035299224873 -0.1539704480204379 -0.6268902019012369 0.6544632233421505 0.2344203735623445 -0.06449149241284285 -0.2842467433370811 0.955167078707024 -0.6296138889360415 -0.4493546547356805 -0.2574863117152473 0.6103553415178964 -0.6667220795562779 0.6263948445811327 -0.2659201835551904 -0.3159368314111651 0.1345938596641198 0.05371043073556889 
-1.020969603069792 -0.1294075995697236 0.6235831095639156 0.5548311919506734 0.2429788534134367 0.4671198867207164 0.425701662399624 0.5180089317190748 0.1401956705041231 -0.01482636375296047 0.4014307244694986 0.5637367733203162 -0.03032957043924862 0.4667366658139439 0.3551859173400196 -0.6956044677757218 -0.01541428825843665 1.575376805674012 0.3946019505216585 0.9845132913480534 
0.1851574178420428 0.1979658172967071 0.1031933361109863 -0.2154768447183322 0.2896874084251509 -0.2628392308325269 -0.5639685656798913 0.3144374006532438 0.2143562851187815 0.1008349239372842 0.2725379699120348 0.3065817620662279 0.3871669510740651 -0.24464686730805 0.6792872069152048 -0.1446791046222035 0.2213987355256553 0.1261651140229124 0.01314192321282381 0.3434356030917509 
-0.2555887540091372 -0.5845241199331218 0.3575300833449602 -0.1343167591918229 0.3426489339866861 0.2366769180618754 -0.239154423067996 0.2394082967382256 0.03340614853958727 0.3293341187804212 0.4510332759170456 0.05835500484933182 -0.08599430133347699 1.131102851454094 -0.7116278819156784 -0.03120386899087644 -0.5121820880128645 0.2236369859686254 0.4786187163293609 0.3988600987052021 
-0.173560265839923 -0.1569916726820698 -0.04392076783163534 0.05674224446009004 -0.1810811006488949 0.1821464696919989 -0.05804496160603875 -0.2265072093302508 0.4408004633320232 -0.1205321989739749 0.440405335424939 0.2878663655440526 -0.03442627958159623 -0.0006482859477561984 0.6109983054923804 0.2381539028729333 -0.187883398171754 0.6693420703684019 -0.3440400399893807 -0.111270932836945 
0.4126983231881135 0.09472343843504366 -0.02434256592534361 -0.451941681567355 0.02907164340787913 -0.2309394867365906 0.7097713465352594 -0.6986639538952371 -0.09006401703047652 -0.8256740143466904 0.884452352145997 0.6454771581435641 -0.08279273146593168 -0.6927695858884317 1.470031603206327 0.6227071080790032 -0.09457028659194947 -0.4563943321202147 0.01147554796156243 -0.07415401436306107 
0.2547299557615522 0.324156344238019 -0.6162285965113798 -0.3511651666006457 -0.06379921387773713 -0.2592888900603755 -0.0636845868624656 0.1241204885974854 -0.0816252787554 -1.127051794281946 -0.2132514495858256 0.2532982209925995 -0.4612709920680905 0.02216306018822397 -0.940317827602698 0.8251937592546497 0.3649206771093871 0.3592546590469029 -0.1288061011965206 -0.07475061210276186 
-0.4962602241730336 0.1081880679667242 0.003858134832072519 -0.01234902234340546 -0.2652962406459164 0.3475361407570737 -0.4745112881444398 -0.3951423497875803 0.006173673927878626 0.3847060322174424 0.2837830359374232 -0.353091682062033 0.1712474449286682 1.361012415536402 -0.9706247075643234 -0.05840675832212883 0.5583757119159214 -1.274086030916499 -0.4221996018870992 0.628007708662532 
0.4861794274545471 -0.1710620508648853 0.5712942225961801 0.2510032571303139 -0.2274190494201526 -0.8373542122016725 -0.4321008211570937 -0.03698149382641252 -0.63485710358736 0.0889601459916934 -0.481894112100837 0.2050410795684053 -0.3929134240956092 -0.3640313803900259 -0.271014012155723 1.12666919048263 -1.353482999151311 0.03615253603919014 -0.0606073366710496 -1.201244575351907 
0.8875888896087546 0.01707019229496269 0.6026304909829077 0.1300026278242122 0.2164537334813756 0.03887602467082076 -0.2139677087888627 -0.2078512119521065 0.6495484240660467 0.4062987530937588 0.4006189164883354 0.3544159350875953 0.6744052313852859 0.01201312251664163 0.2228973402083809 -1.270629047789736 1.149802670261438 0.7489767032822505 -0.06008225789053898 0.0006254339801039224 
0.1530662198616067 -0.2200812515747793 0.2700854483931378 0.3596933395197187 0.4453501381528164 -0.2598664732310058 -0.2652686823860205 -0.04233418794529155 0.7493579569279011 -0.0353172478371665 -0.05927710195519888 0.2276415975008882 -0.2642514505766255 -0.3231474822154013 0.2566172884348573 0.4028877487248639 0.07892772566856043 0.8040450747927568 0.01118518423825824 -0.007589802694232943 
0.2640573958044412 0.1255337198293253 0.1515411858719119 -0.3093986151564732 -0.05942549445046847 -0.1221102205415386 0.09654964081497476 -0.6462170104708715 -0.01483501489753777 -0.4687786455644306 0.9377538176590858 0.1284007294563121 -0.1708179452628456 -0.3625670525336188 -0.0247716248237392 0.2799077470973961 0.3034196085298764 0.09683308720804129 -0.3802554405028291 -0.0279880390756344 
0.6464951148703018 -0.6444201043744809 -0.2084309895345456 0.3762124556222292 0.2017590328025349 0.0580175799570203 -0.259540071501695 0.05339853763269266 -0.07724442464896648 0.639699962825851 0.9236122717355492 -0.3711598535353786 0.08800908258557064 0.3319144343945151 -0.1966513759186268 0.1564522011825945 0.1588366557631919 0.5565011089677059 1.363463642590862 0.3909005130592664 
-0.0433095128035915 -0.4056016546255279 -0.5767992379551309 0.4649390329229419 -0.4437858746020789 -0.4489189025086994 -0.08626674485719348 1.579094972755318 -0.5952130295380202 -0.2112735208211735 0.225172232211634 -0.5933890197182021 -0.6411555203411587 0.04569648768511177 -0.5934172109617499 -0.8693668439056179 0.2130970412760205 0.2600175920972658 -0.5954904366377785 -0.3404830512162293 
-0.1393616061976858 0.3597513917649358 -0.5271829972489953 -0.1892938028925176 -0.3978936631988645 0.2868234437466546 -0.2054259611288616 0.4690254450441588 -0.02852813767565051 0.2629438069908644 -0.08451746833391949 -0.2144961132430449 0.01946136346667183 -0.03624634518145615 0.8419459998877427 0.3527298292553602 -0.8314938412266697 0.2227349990281562 0.2724050387478468 0.2424591616975164 
0.1929038826334507 -0.3015985637240892 0.6906318606570467 -0.2475828027552907 0.2375948632937278 0.726633599835858 -0.5285047753723459 -0.8546163315832462 0.04152085108538379 -0.5123355604069874 0.08197876081926733 0.4292528299886498 -0.4455548762363368 0.6778384477832351 -0.1381822267354289 0.1070660693484189 -0.3999935681968579 -0.7731558378465034 0.6164714692544079 -0.7704000771056745 
-0.7463553723046127 -0.1056143228159215 -0.562233809420787 0.8093533707918412 -0.3021684241917195 -0.188373084775697 0.5852542458819675 0.1204145225201627 -0.1673765282888833 -0.2737167872497862 0.1925886374856162 0.5336362061645833 0.5229764596549972 -0.07497687571340167 0.07957706823927871 -0.5400759909099065 -0.8562783482530428 0.007330434305533012 0.2202347325827015 -0.07774753756332821 
-0.5722204428042691 0.02485763736336936 -0.7174383469798922 0.1601278221895217 0.05000096164750611 0.3107517265395426 0.0376443759158877 0.2867410858786921 -0.2186115334030063 -0.04155497517131713 0.7146999362485791 0.1256547006963968 0.05577507934205369 -0.7079918983518534 0.08541275023281775 0.9393954362621797 0.5848778418858933 -0.1213082184469976 0.092544561430542 0.1396888149496844 
0.2619546912104093 -0.4344881903178443 0.8163933206201184 -0.1597966819891291 -0.05794332666971939 -0.5893948257723609 -0.3787302148748254 -0.7500836152098176 -0.05104132263107638 0.1714167349668826 -0.5958483166070943 -0.6587673839537146 0.6511165051023411 -0.2435204332555126 -0.680830053939854 0.2828173880802505 -0.6952073725777671 -0.4794245977159907 -0.03673480946546999 -0.4465585614250431 
-0.1984800952319345 0.2821086117863958 0.4193225044567387 -0.3890711870795233 -0.392608561903417 -0.5033072953672125 -0.5103690305522613 0.7662882828718931 -0.3904126622703095 0.1510079301381219 0.3612592286183178 -0.02561447148487907 -0.251780654697403 -0.216514550556611 0.009540431887160649 -0.8958578711459505 -0.1978356907033754 0.9664728767560619 -0.4449654705652192 0.09591011407379908 
0.103022807752022 -0.09831100574650672 0.1578865798188032 -0.5857019819390323 -0.3543296069825472 0.3162909325971319 0.1903950484113169 0.2499505760566355 0.5089865307241963 -0.4072283947721531 0.07683464680807617 0.7103028716729056 -0.4417309855974283 0.6434088722572762 0.6875203673860673 1.94730891845589 -0.3051751169973819 -0.2304724447890085 -0.4230642346852888 -0.4541546597545645 
0.3302609083015372 -0.0777915534398036 -0.1010692785141249 0.256505768867505 0.4686522048557927 -0.01868764445990041 0.3817785075506911 -0.09835047955567591 -0.3503470808251849 0.03141915899910343 -0.006768656092774834 0.07429964617615487 0.02755221643720538 -0.8953219779128683 -0.02589410551684282 0.05086907349435908 0.2164761796162093 0.03423248284710841 0.3235856374257152 0.1501935714388953 
0.1259743970882311 -0.4968221917941301 0.510971301515654 -0.05612515909526431 0.599058054203301 0.6742236173847522 -1.164555195111328 0.9433822152764264 0.5755650488453897 -0.3150934455835463 0.2038121356049282 -0.448835335400153 0.5423505285958423 -0.8144384220599387 0.3319472049703046 -0.5795812101881025 -0.1567220270919441 -0.03455592718592666 0.4878604383687178 0.5038729249713007 
0.6511102365747532 0.09287883039138986 0.6374298275699676 0.07009861795573415 -0.1779965502684427 -0.4293817776887777 -0.6891809198665778 0.05557661447693571 0.05309869669515097 -0.3402995175251463 -0.07760091450334052 -0.5085700080262147 -0.1824427690855051 -0.3893395680051331 0.1662707933888563 -0.4496433018032206 0.2344767803643189 -0.4317604271825772 -0.3449949022273084 -0.0368099076730448 
-0.1217616876206403 0.375581375098799 0.01106207826637897 0.07071410391375629 0.5835809907492091 -0.5555094942114317 -0.04815692322579964 -0.1328402494156898 -0.05600922926148926 -0.5112157558394625 -0.6719546535070889 0.007567176363385745 0.1966935082640516 -0.3180408248048054 0.07094993374245655 0.6641148715779605 0.5410338807954054 0.2403645193670601 0.5532692374154609 -0.3255572361402739 
0.004944188588703512 -0.3821265607743368 0.07714904018127763 -0.5575240935853277 0.02695745269127667 0.3865268819263981 -0.1074232150917071 0.383086625604932 -0.929526585691168 -0.2106147900207071 -0.0236728800185257 0.3915550884633819 -0.594595897542626 -0.7101050976752727 -0.0004381791894010126 0.7333651341134836 0.007261152339372173 0.07932411134338703 -0.8704431103349656 -0.1312201127237719 
0.1100525966086742 0.4144588499033215 0.3163163645867915 0.3186791577942102 0.2562542763876473 0.200198435539141 0.08958875038407201 -0.2836462279704925 0.1859579774455945 0.2663227600364881 -0.1492102335848137 -0.1314659346836333 0.07998306634816993 -0.9620444013136602 0.7063163967591132 0.7421770703864314 0.3004021475049852 0.2449893826634866 0.5619572403410997 -0.3708994267805577 
-0.2983944478047276 0.5247018113792653 0.5525481566258051 -0.207656915116031 0.106502597830395 -0.3725663570653347 -1.029335362998961 0.8637508950343611 -0.8669910863177958 -0.3286225856767002 0.04387500599751832 0.1011821458212496 0.5228973251623933 0.7999580780369289 -0.2449466953307204 0.1429725138471745 0.547503124924441 0.01980741382908398 0.08887440891867381 0.1652164406941068 
-0.8290996945604836 -0.09585953831075995 -0.3023360102790852 0.3237510411928196 -0.3614135081993798 -0.4852487419456764 -0.1739081540064097 0.2363542284632969 -0.2918604582385627 0.9479803342844306 -0.9524892713796496 0.2319012138129784 0.4104178150809887 0.4451410992798418 -0.8719715137890393 0.359963825457021 -0.04147871280163649 -0.1056003962327944 -0.7052997202155863 0.5986589308356418 
0.2303806357237325 -0.4128935886927861 -0.2525695287487627 -0.1030769906695018 0.01686169458780543 -0.2382670599963068 -0.7268138507452385 -0.07080722829303825 0.5105322070236997 0.9089941550090623 -0.1982915543807763 0.5010643911595414 -0.1027213976474142 0.3146394814392865 0.3016372937910548 -0.1777307313857857 0.05889396409519248 0.4190221725310176 0.4782796285340994 0.1674619073656143 
0.2931570294050392 -0.1882914329632143 -0.4998356440451988 -0.8257648924901262 0.04433163463746814 0.01684307661266754 -0.7389444823452718 -0.3657552494171973 0.5955279087516815 -0.0506467664854686 -0.1039873199094477 -0.05731013431245322 0.01950388335924725 0.6881934695772419 -0.2146953218502992 -0.08484030422185049 -0.1928977230251818 -0.1968717713978302 -1.292564953831751 0.5087147665343381 
0.03147238834256128 -0.4356474320157809 -0.06887795229120727 0.05216400510548762 0.2112826565054224 0.160232420268431 0.06649779047974964 -0.692522556229163 0.5050014298267462 0.5698702451090142 0.4887067579833027 -0.0931727049334759 -0.2579604907829868 -0.3810117288248963 -0.17637940266833 0.001338287441623467 0.2392741319529079 -0.5418404206110933 0.5369700871056482 -0.2635189123794673 
0.7775524609465324 -0.5555007369613576 0.1277864689291559 0.7448211626629415 0.03478199753470015 0.4843332884125867 0.685676815572304 -0.5489151758041232 -0.1336962134049703 -0.2409877189300048 -0.6673377324314163 -0.292074537221124 0.278648646834229 0.8665963795471571 -0.1012569692757799 -0.9246099210802787 -0.2495643787983168 0.08622812401052234 0.7672989272641512 -0.2190433708626804 
0.4440804173267898 0.03281819825064792 -0.2687321883504251 -0.1893342995498825 -1.001118609299571 0.3491038727448629 0.5974746304294219 0.6649330875936543 -0.4709968692120856 -0.7340012543412496 0.2173125339891517 0.4014175291374077 -0.3545784075253889 0.371272726756619 -0.6161051084299818 -0.8869147034451318 -0.5760351810574573 0.4458073466800689 0.05267896381720763 -0.5540953001221761 
-0.02490300118479339 0.2412605181683239 0.7935307092791115 -0.323400471275752 0.6811250672261688 -0.2287733041367505 0.7861688935135152 -0.1650224988309361 -0.9062958306684543 -0.2596182153553414 -0.5655042355394608 0.7683030851611482 -0.17584582467253 -0.03295064956920431 0.410460535589957 0.2886560692591531 0.7397356806664261 -0.3363621229235179 -0.7316663922841199 -0.9555849278202773 
0.5604117705624504 0.1700835647782359 -0.265762661278783 -0.4554711458630996 0.3185385557748598 -0.7852662764406787 0.2875767400832943 -0.05043707965808285 0.6172569056216972 0.2397507881335341 0.04271412459181203 0.03312378656157473 -0.1947188303436793 -0.172971843534804 0.2632552693414906 -0.5837017304964633 0.4968050575136165 0.5088949056144767 0.1502524661263849 -0.1626160200735287 
-0.8486722355396953 0.001886015871385033 -0.2467378821051051 0.01679989993061182 -0.1926394188797719 1.058462913129173 -0.4068087779080916 -0.944609301542526 0.6209774533389132 -0.4846047397529921 -0.05419042391446707 0.07787168808838794 0.1966193672018387 -0.09904842435535678 -0.3864542783568952 -1.396908068958738 0.4077597377475823 -0.1144955714326868 0.4962584742955192 -0.06963385344788262 
-0.1243439577751408 0.2292713038044678 -0.3665002042276413 -0.2462687389271747 -0.7612803864684233 -0.8846440914452285 0.8085834262516773 -0.3526455560621906 0.6267090023886041 0.8095435024672286 -0.3942971144382916 0.9816445746489557 -0.4664838060375109 -0.4877872018902575 0.9182331786490401 -0.220370824857241 0.8459585802772061 0.4083220716114893 -0.4403805260463435 0.3981112839376373 
0.7716209879484985 -0.2503675726100025 -0.2762713264842506 -0.07216932187173337 0.002827890215100182 -0.2329230838530069 -0.3654027063586112 1.031466322497363 -0.686846421894594 0.6455422560412134 0.4690208779783316 0.3786379641664731 0.181637121572009 0.484051822118845 0.3429278626167465 0.07589889984689258 0.5842191541221304 -0.3887677749130503 0.4334455065394853 0.0340385927133316 
0.1369959416314942 -0.1581939558238397 0.2068563410369485 0.4982686879801614 0.1350992534000532 -0.05420894026550359 -0.4504966750429168 -0.6795516790282156 0.3978533426815254 -0.1450949868316609 0.01212077785165776 0.4618096398584839 -0.2638753763823101 0.4335367016513111 -0.3846754877964081 -0.5082856911911913 0.1557393288085608 -0.4512450146420471 0.3499628237464939 0.08114688547963816 
0.0107492463931842 -0.3204731375487739 -0.5237351952223369 -0.2317782533571988 -0.5080189035386692 -0.6388289226474519 0.5768254449457199 0.09696379378792618 0.357338306524307 -0.7260763764324935 -0.1732288064294722 -0.7795784127317307 -0.6912920688213069 0.2046266527363033 -0.4025617864136386 -0.5750141720040791 -0.5875419723223947 -0.1359896963827165 -0.2760972038006933 -0.01666305520443528 
-0.2132284847722073 0.09177622268929374 1.385929276768026 0.002451485977017234 -0.4408981521779363 -0.9611543853945607 0.05953207529123006 0.4370631701091787 -0.5062930727462355 -0.0931685436953235 0.1989079890951202 0.1803319038251976 0.5953619998178098 -0.2416646115282205 -0.1123237728101096 0.6665709876884915 0.3288183735586863 -0.05401592888634754 0.2723288227459194 0.09431712120631036 
0.4453422673411182 0.4866817049461593 -0.8595541885470731 0.2074772207330917 0.4017449495909555 -0.2938607491860968 -0.3021277483713507 0.8101243906805031 -0.3492513158726897 -0.02762488303609136 0.731263824589119 0.2726051461803254 0.1276949980910689 -0.3642812900539493 -0.4593088162013181 0.9374115892123283 -0.9159240937745884 0.1457645379238282 0.9194261940251431 0.5172925489014316 
-0.02001426441155258 -0.340053595198502 0.1639284287180089 -0.05202784014104405 -0.2185328319917534 0.01271210280153343 0.5515722110627158 0.0898781156284264 -0.0837739417036624 0.4011863365216501 0.09667564714279345 0.3663935942859826 0.0324984162085338 0.1273084990320864 -0.2907932184009372 -0.0326328026359359 -0.9444109653686322 0.8836158821318163 0.4257697212910287 -0.8270321756999934 
-0.6470841675048513 0.4672104315600766 0.4891842227542181 -0.07685992787448917 0.1492601300508641 0.3414213698704123 -0.6921337627468022 -0.3036262519685534 -0.1543120310852679 0.2143082263400853 -0.0337064336055171 0.08546793765818402 0.1608065064655077 -0.004570406731523279 0.6241456390984895 1.103145420610479 -1.301728970504341 -0.1607565917918499 0.1577038087885476 -0.7230057665508983 
-0.5426317729342388 0.07355204503508836 0.9568299444260912 0.2611883235673527 -0.580448289087852 0.4399145597147843 -0.07591804761271183 -0.05337869144046058 0.3191246761851996 0.1797700116694583 0.3476644262955293 0.0258357434724039 -0.2378120827670574 -0.5045108947976166 -0.4633993148875898 0.06994486947258272 -0.2808933557765557 0.6177976620729071 0.330055213814309 0.2725586808931509 
0.3673353175228083 -0.14478079386594 0.3428279021054889 0.1221096811125155 0.3578261978835899 0.3482029239738389 -0.6993789053701206 0.2766329946304987 -0.07176726666890233 -0.06805431106886857 0.837990919728585 -0.01091485860945498 -0.2152470881200862 0.64256825837627 0.2792447157925261 0.01010324578047683 -0.3553570942470527 -0.372212655852926 0.1454131114821923 -0.385587553857607 
0.2942643318043373 -0.1897587119957402 0.5984789818118887 0.221575805204231 0.2901744069559007 -0.1109866848104519 0.4038766812091902 -0.3918838175910739 -0.1998890933875455 -0.4604025950523486 1.004496987998362 -0.4803700159502675 -0.424280988697716 -0.6009730518025866 0.1621366430001134 -0.08122022915698254 -0.5613681674124965 -0.07523271151477331 -0.01853641228252973 0.1679637895390266 
0.697188836202281 0.2559506508189775 -1.014655098097583 -0.2471699344970692 -0.2437542501836204 0.1027217473394131 0.1285212133495874 -0.1665232092353518 -0.561333899770006 -0.2040224453901262 -0.1223927213575672 -0.03742750116120577 -0.1808882114494171 0.3158040592223366 -0.2277868957903898 -0.7835330578462529 0.2719975529630902 0.5594631381768003 -0.3379281386462057 -0.3103646029198002 
-0.3251054675648867 -0.1823827794242749 -0.08330476266197419 0.3038825015058311 -0.2575611007376257 0.345625328269375 -0.515066924705334 -0.06976385155937742 0.5480079660299159 0.4243037686865386 0.6064374890583294 0.09892184602434581 0.08528877076318216 0.7038300699965571 -0.297364532721848 -0.2914987809232877 1.142356417539226 -0.1398433256960979 -1.182121410888474 -0.5271265867203905 
0.532978029100233 0.567237981818979 0.5283236953706287 -0.0419780933900555 -0.4274592585443218 -0.1572191957171298 -0.1875830192873761 0.4092145573052426 0.4939632816617833 -0.2705882557766212 0.5589367157574424 -0.00249203514742729 0.8252085310015571 0.2660337624761144 -0.09062695919162715 -0.5344423294272406 -0.08562228394119582 -1.096376422941125 0.182927455131158 -0.2327242238511962 
0.07058461909433829 0.2797294676262052 -0.5727424308963011 0.2805203203965739 -0.7195675585292294 -0.1933954475527194 0.2229905777987101 0.2525509127228705 -0.08236444532416061 1.527729722754263 -0.819178506876422 -0.0559308178830132 0.2041142309130095 -0.62441638687937 0.7234041348178121 -0.6156415068105365 -0.3841382882208243 -0.5980091980239488 -1.113830793096061 0.2603581901346783 
0.3548754750666698 -0.1465683825064612 -0.298976727241005 -0.04124559187307714 0.5046774675745691 0.9853544640771417 0.6079682343656526 0.2778908002938154 0.6974446856043319 0.714670567807192 -0.1403191138598701 0.1589606120037296 -0.1878462665842225 0.3276622895965345 0.917953349978453 -0.7627394326314421 0.7202696882616387 0.1366631514761908 0.05923801397274508 0.6987786205866839 
0.7037288544994688 0.09285582815520826 -0.3982438303158453 0.1328410477563522 0.3592607678361828 -0.5899133088478852 0.3309094108841989 -0.4303932011661161 0.08456536781595336 -0.1542255866811841 -0.6695070109914268 -0.06906660730338655 0.2205695721299318 0.1452523184990425 -0.7113136329063954 -0.5817148113304739 -0.3162755717890446 -0.2843646906150903 0.2348774442039561 -0.8032436688496747 
0.1424645955762639 0.4549683403204456 0.5969031816819453 0.6035115490000992 -0.4233140481980595 0.7307601495527011 -0.9351887688277789 0.6705100712919676 -0.1505492693008576 0.221167196205663 0.2147908355306635 -0.2682108425336435 0.04181694339430907 0.7969759247735534 0.480547556463738 0.7288281168095418 -0.2014923481027703 -0.08048695765120244 0.6986718312048273 0.3471492646208962 
-0.1687867576785395 -0.0002641309215197206 -0.6941335196746528 -0.1749060961683208 0.1971608034310388 0.5575848012440275 0.1327496456846352 0.375488507931507 -0.3706837577612643 0.1748569982809312 0.003694190424643028 -0.4026289442371773 0.4877239601045905 0.2826862258024728 -0.3776357004217932 -0.1793056330139864 0.2670142849934178 -0.0239562723270286 0.1689629654076444 -0.6471074770542126 
0.9257283818715152 0.383094999068957 0.2888200929630271 -0.127613191126798 0.4686326128365765 0.2056512788727025 -0.9427093874245858 -1.28891060513645 0.5538099788481815 0.271303280807723 0.1628855888772239 0.2542470126770763 0.1173993869879008 0.1419761783685815 1.536509466957545 -0.2493853015622695 0.7339684798219429 0.01786396552423981 -0.6120730634373203 0.7625130521295679 
-0.227366443218405 0.6020766643224845 -0.5328679404890425 0.4609108065589874 -0.03896946740820372 0.1209903733113181 -0.232449082070235 -0.2188452315698253 -0.3882405365599755 -0.7692140913746897 0.3592013491177991 0.2640043339944917 -0.01719789919211449 0.2486440110178869 -0.03088741350779371 -0.05473494847661994 0.3800747768855046 0.3005903804779653 0.9377092079690804 -0.4201182517241284 
-1.071325918367042 -0.4428190323493474 0.4105170332260679 0.09060319740976147 0.1525201477042683 -0.78897692672655 -0.6435353878779621 -0.1837815868075382 -0.01804438346354052 0.9761435679492635 -0.391238339063962 0.02861567065399094 -0.02601172647032143 0.2157620195111093 0.9056201475822105 0.01867771715840039 -0.2364682921971562 0.313791610303891 0.1708113297273707 0.576801972897152 
-0.3867042967712119 -0.1359724351906074 -0.8432964683764692 -0.09772587055940365 -0.01284539731742421 0.1475065136756298 -0.1266254698960572 -0.1343176863668182 0.3741552238901303 0.2529165037411185 -0.2078440820369173 -0.2809976385651879 0.0534189461728425 0.05923386957784446 -0.190974464055564 0.3461166087432483 0.05079174581792678 -0.2579280202073447 0.2620685849761569 -0.5443020490274991 
0.6982059664728953 0.02496866174873567 -0.214548476401204 -0.0906414620650277 0.9648602177769386 -0.04863295567758927 -0.6553965400616906 -0.4027221178503662 0.2876677527899414 0.7750998759268858 -0.5527793338668842 -0.2079005741682929 -0.3646732497942969 0.08145983879836424 0.02518649018378447 -0.7787246078979376 0.6291015818528797 -0.04586743676681013 -0.4233576567804476 -0.0912261812279599 
-0.5046185202980532 -0.2021297741919605 -0.5291344955800551 0.1101853790854234 -0.2168147207995518 -0.419090769172191 -0.195305558485958 0.01459663650474353 -0.0840245545774912 0.3326411268168558 0.4914655072829762 0.2830823253062327 -0.09254754913043017 -0.261353809943847 -0.3476487478023693 2.16111382339677 0.6906063260512154 0.3900791984241119 -0.5432514098119342 -0.9584062517663281 
-0.8254329700332629 0.1333798586538475 0.12567030960144 -0.4939901838514978 -0.3019106378797527 0.164067394250562 -0.581037240713715 0.05996767333003726 0.1404841154995407 -0.01615641799079042 -0.2079524860079653 -0.5187514151817966 0.2196804173736032 -0.7978856690348417 -0.07904808592853516 -0.2153760576829985 -0.1559380842649893 0.1019596734609486 0.2182637658784951 -0.1123773228344564 
0.3755075137216349 0.1167499133229812 -0.1730802784764376 -0.1214337722407821 -0.7353902703164534 0.297680278337637 -0.006461632925740801 0.1668254185423603 -0.4425938320936475 -0.5973779408216732 0.5980838939634647 -0.5490137124855737 -0.3653150100067947 -0.4929206968277339 -0.7214300124258884 -0.635732784257652 0.1440859270986859 -0.2183400620123869 -0.2494791743204382 0.04784631373152814 
0.06085005773641992 0.03155984664212037 0.3941243312035483 0.005357947256552816 0.01213852253126662 -0.3979515964368693 0.7438093305015071 -0.1646198940632879 0.7674349389889404 0.5932675832145901 0.09348730201906666 0.4686945950506103 0.00140866922011525 -0.06806817021956645 0.8329529688475256 1.139121463802379 -0.6770798444753376 0.4009139945655202 -0.001969531740449473 -0.2591914783410563 
0.5806278074725639 0.1351762800911739 0.5441848973196932 0.4302830777350114 -0.6711591793474831 0.5195039865733279 0.2102978157334246 -0.01719748165009188 0.446770338415125 0.1968308548062919 0.9950705263740578 0.1921274432546892 -0.3976978157671449 -0.7398073185731268 -0.4114771145709761 -0.1742988296847107 0.02100132096970284 -0.2072898021376119 -0.04091515959051413 -0.3040220827740889 
0.1935250730941186 0.008887017268251784 -0.3670870866856173 0.5806768433532495 -0.1235800680572925 0.5827031751434452 0.5869723585171318 -0.2152144911702467 0.3656958089028967 -0.2613982341233963 0.2299387984426169 1.357330791351072 0.3199139560022244 0.3826022616761518 -0.6672826631560149 0.1136023490136782 -0.08406287121703801 0.2274439008980716 -0.1505478873296529 0.6319591893946762 
0.1022127878680277 0.3410836090629695 0.5754070595337957 -0.05727245647354998 0.9053412364902435 0.5943952858053028 -0.05374375204480463 0.3799575506224053 0.279318171183683 -0.3943192594631253 -0.3057841419002075 -0.2689380856095499 0.1705591828288438 0.1567676730791887 0.1885625616071232 -0.8293954092806783 0.03179590338793892 -0.07368846015663305 -0.3581446580995338 -0.01702954004303877 
-0.211836143312477 -0.3564195421323478 -1.091294030521828 -0.2650240466265956 0.09520149716324844 0.4000798786416615 -0.101326331185361 -0.2465067999663021 0.01482402326594983 -0.4194391757786159 0.2598651533180764 -0.3114778777488832 -0.3234671194931314 -0.1581102828098724 0.1592838318154 0.4964943408529739 0.6668904956680695 -0.6109263555557924 0.3157676933546204 0.1114602888472499 
0.03526088010964914 0.2016254109050726 -0.9947152675107327 0.4954970120830613 0.6183525228189417 0.3783387824071192 -0.0730436990281752 0.3801921713649382 0.01747615804889394 0.09123919302925473 0.249903082851236 0.4755749024400532 -0.07370921536328461 0.1164096927367667 0.5748234623150486 0.1506657264017823 -0.211732437968281 0.1853867497526706 -0.1198053651885529 0.7478320480147591 
-0.5122245197130315 -0.7448447602865446 0.2667608334914583 -0.1753955605741454 0.04815905025846604 -0.8422629410676952 0.7604775193181398 -0.5585896530670948 0.4991656587641174 -0.5179316711817132 0.3124024092091492 -0.373367668628607 -0.1668196839248613 -0.4507124889693017 0.4702234014704658 0.2252616616850904 0.3019177269963002 0.2671267402508092 0.01113891054060196 0.7119132230712176 
-0.6612883720888391 0.4869485283395023 -0.1785764579425405 -0.09728228367940371 0.5644030505492691 0.2881628382946727 0.6116863708739845 -0.2575858230740393 0.1427182999819255 0.5414451220160212 -0.7870932253039145 0.07110791114815247 -0.3259400351145397 -0.07718804040542003 -0.5303040178451864 1.091523685362887 0.1580491294933751 0.09040689969178936 0.1990346751537076 0.3591228963996067 
-0.1947812744233502 0.42046241905449 0.3287899890522682 -0.2693770978205847 0.2961449449905482 -0.1750507999461123 -0.1874666488380938 0.4627882492732883 -0.5144797061795345 -0.8799281446629231 0.1956606185701479 -0.110826021298443 -0.3492216317378508 0.01755494709121055 -0.5675347000788005 0.3196776606274563 0.7892876179001702 -0.556711532456897 0.1356965115997082 -0.5394964368458131 
0.01798914866160858 -0.1723638367757494 -0.06874906579529083 -0.3229952940803917 -1.018750164136227 -0.3406458655998096 -0.2743612730467417 -0.2879439454250555 0.0438428892128736 0.3950352228331576 0.247135631176548 -0.1751655713725664 -0.1230376624045528 -0.01645140005214734 1.547017361546004 -0.2791701043461092 -0.3778315605062882 -0.1659950782608854 -0.2957479450309844 0.3100203230098977 
-0.2966418318568934 0.5715399296311177 0.3032627617720739 -0.3552330344951103 0.01892448124923148 0.2150470572624427 0.116291011504988 0.6377510072202781 0.02460154854746431 -0.6280840017630815 -0.8053017453298587 0.114006034353216 -0.8355192524208371 -0.2621832263985101 0.8337001303743851 0.170248031017234 -0.07425410229879442 0.3702585018793514 -0.8137177081495817 0.8139440419156915 
-0.9666721956542021 0.4159842036428516 -0.4227943602002763 0.6920397538854155 0.3341411338124144 0.2100462143139855 0.496148626669437 -0.5570601499116512 0.08053486829175799 -0.3552394002162998 0.3744635851573485 0.2799348427002908 -0.6917082127697144 0.2312902095688678 0.3829551326163918 -0.254481119136945 -0.1584037944452912 0.7630080186539614 0.1945582013535704 0.1039137425438825 
-0.8161145509877028 0.415046338201177 -0.1947258248033347 0.04515912262474932 -0.5016577474057213 -0.178195808691349 0.1443661451476613 -0.2554869532423646 0.6003101101050023 -0.1657307612066666 -0.02957536366215017 -0.5301652215922242 -0.1675636440532468 0.0710984411844201 -0.5228138901361618 1.065646701096587 -0.2116589659483027 -0.5450798261298873 -0.1923411046768269 -0.1635931639073019 
0.03432646011045135 -0.1226146797987628 0.2675045133705775 0.6128478280359791 0.4292667326016145 0.3303328327398039 -0.2432809696342422 0.1613125267857399 -0.2109323138265239 0.0565296139336357 0.5742215349681288 -0.3211866441180809 -0.06300171570857653 0.6312622274918588 0.2352349508778165 0.4518152436517446 -0.3301558471084182 0.1300797586656371 0.5843031737039124 0.8290080495307273 
-0.08877873607379559 0.0155552172358091 0.3164322426790184 -0.2922013866841434 0.4062368705928661 -0.9019596526357865 0.1658601866893707 -0.2648429550888502 -0.2830312307671078 0.3025511611840424 -0.2101368494593067 0.3187616724182309 0.01373934799864008 0.2082769728776157 -0.5812190739856017 -0.4823137490763433 -0.7477003437682272 0.07133453045843682 0.3511183437659283 0.3147798063147658 
0.346634427020324 -0.4288794028817166 -0.247125609839576 0.5423800662642246 -0.2691840682744653 -0.3227585227840652 0.9990938361662117 -1.038835594193016 -0.01848207828712004 -0.292465248934744 0.142213448050398 -0.4654198509858682 -0.1157320683832897 -0.453069177263867 -0.5874605521309235 -1.436236495019706 0.01829396015817344 0.4330398369181863 -0.2884637187661714 -0.0295395940890206 
0.1257045232279572 0.1431783158765799 -0.317575033307334 -0.2941458491304549 0.8115017322864596 -0.3132365731380033 0.01595566820654881 -0.2905428923336076 -0.2694753617513275 0.6127379517474568 0.2965730185813295 0.4294773690579179 -0.07820927000462617 -0.9594553409225675 0.4005961246339795 -0.05608982262365578 -1.313513343526594 -0.293937998004118 0.4932498884002345 0.1187879277356989 
-0.2907044874537844 -0.2914458586802445 -0.5831189803141676 0.1021351356616302 0.2577434658450085 -0.2536959622637068 0.1407909759899935 -0.1331831465162755 0.08807666694048367 -0.6215809646643999 -0.3991043853004941 -0.1866258766892557 -0.2381959774796038 -0.4019553709436423 0.7784227947875518 0.25134033551152 0.2280122282570722 -0.05110891141122668 0.9027342519645749 -0.5242495841244048 
0.4106630400358999 0.1403533960821453 -0.07276083302555023 -0.03633135530596416 0.9884386758831066 0.3894608451518767 -0.514256005324575 0.7339759646257424 0.07291007899481926 -0.5495754939818676 -0.8547115264547176 -0.218903221746963 0.410412383694496 0.2023785988504839 -0.07524595312224092 0.1921174179532738 0.1750726845656249 -0.06065433321340808 0.06905322340004237 -0.6145473930797249 
-0.314952702813857 0.08005214863972372 -0.698464212386392 -0.2450165615063889 0.02693100512028366 0.198066513640982 -0.02864483187452333 0.3240066698947941 -0.1491435797814772 -0.200272958241988 0.418234085532892 -0.3568691789722656 0.479484144409349 -0.506118966122145 -0.5818940687953047 -0.1814637307384679 -1.020380703642933 0.1020102064822735 0.5382719582436949 0.344726887105438 
0.005151992264673565 0.09756136145147065 -0.2116730628582056 0.5880279194271183 0.009242690920307786 -1.41282160423607 -0.2704380947395373 -0.2201065044079132 0.3770250089484534 -0.637296432515867 0.3246198277090399 0.3414772207369057 -0.09881322523092205 -0.6039455714222233 0.3590459275166 -0.4508572767307337 -0.1492256395673313 -0.4447701242284307 0.04904700314992978 -0.3956675349161549 
-0.3037667191087067 -0.4361119066236901 0.298425315477585 0.1584233086929119 -0.1266606001443339 0.2997896100911967 0.2886502499196044 -0.1623777698295792 -0.7293386808379042 0.2926343966172457 0.5023737404229954 -0.6271477519583517 0.04967416631341035 -0.12790060464262 -0.5404736453199203 -0.6536406736990641 0.7105286550781147 0.5685125098382573 0.9587960107905399 0.6106475373247515 
0.210955970788896 0.01913594853102824 -0.6543385247735608 0.262418347284934 1.027974180300713 0.1295721488001732 0.04389073127474317 0.3104447384807623 -0.385179036450567 -0.06716527962417282 -0.00940739632289184 -0.8493983937042779 0.1364358797592991 0.6673864861709017 0.03336580076468621 0.1752371015845358 1.229810767674553 -0.1066201265654347 -0.2355298413749694 0.2771823835137716 
-0.6369109628663425 0.2462386739789411 -0.1521284411864053 -0.316681243711281 -0.105990580050659 0.2575520860589748 0.5908492059288839 0.4793920987144967 -0.6274530121833212 0.04752566981261332 -0.110934400921183 0.06961798224114653 0.1014906482130579 1.031799784877908 1.648224711054366 1.472416296005258 0.3351295362209099 0.07914797805627852 -0.3447860403676878 0.2825942586625777 
0.1927259990968962 0.638699053281454 -0.2162089930824881 -0.2824834137845423 0.5367854871527075 0.4751140244706847 -0.2593884965135125 0.1611705339384273 0.1899808303524784 0.1531635120208978 0.4667469965490587 0.140317604123559 0.4641189440568249 0.002205812863856377 0.008388850340794039 -0.3752279023344302 0.9348417705385066 0.2563870306698885 -1.048082732642158 0.7227111277134671 
-0.3506276844265846 -0.8296801556462577 -0.1069201736336803 0.04148638910578799 -0.3869969612101014 -0.5745344729334828 0.7154015998184879 -0.3211628192796918 -0.3653691962903297 -0.2451210613904652 0.3528554348476025 -0.1125854812927963 -0.2880158307480669 -0.1394222101054873 0.2980595928188982 0.100690703690661 -1.001108897722016 -0.2884909448403788 -0.3174609730954198 -0.154132334725848 
0.559452339978918 0.337188573933591 0.3931296809389482 0.1493628598192397 0.2282371716019937 -0.524435008245655 0.05199884615813037 0.1643172891790642 -0.3130804877354089 0.4720340672440662 0.4908273388484742 -0.02681316647504936 0.3733223336447727 0.02159176173910424 -0.430032922807114 -0.4641203586684387 0.4078245092622196 -0.3681382514697399 0.03699123747881441 -0.6595337213459043 
-0.8280462821563862 -0.6438919870234233 -0.03416701451328538 -0.1149515764534802 -1.194092719955803 0.4440191770215745 0.02614462583221702 -0.8243361942037951 0.1264752985242111 -0.06927203786059523 -0.6021778246634071 -0.6413752504724862 -0.09557265802895903 0.3973004579435295 -0.2945738529404193 0.007732188274690709 -0.3423123636117079 0.1219305834963553 0.04763820864395236 0.7362939621130414 
0.01462848607993799 0.3979680668768442 -0.2564556212448045 0.5950586462888732 -0.4584979796743076 0.2854184731493131 -0.0501534737144592 -0.0001471831553728343 -0.3466551759746583 -0.8968432567917036 0.1725989887284175 -0.05397636040466594 0.1979162526093399 -0.1949687821190684 0.09565752106783307 0.05142920358447994 1.003703391016277 -0.4892589803764043 -0.3755921236584204 0.2750246978832503 
-0.1156309403101537 0.3056323994851525 0.2982923162517416 0.4994756470248466 -0.2519089259123579 0.3454548802948371 0.01027971851098146 0.05398834456436062 -0.5070997209739024 0.1745737422937114 0.1757276326013551 -0.3033115374464262 -0.3925191433812217 0.09369731846772068 0.007026238458340685 0.0276573369074612 0.4680225777243119 -0.1654093099072063 -0.3223988140135145 1.128446831565993 
0.6870212049009419 0.2010793441464929 0.5625472026257919 0.5751004386185224 0.4350406679694032 -0.1138199471829214 -0.5927780798399336 0.023907772140428 0.07973230936561543 -0.1037168803859964 0.2885963530350225 0.4816263435719558 0.3427650667498318 0.3882353746098485 0.515487400046134 -0.7540455357805079 -0.07295189594191867 0.7753740726456533 -0.675210354889057 0.2816788213534731 
0.4267542700785755 -0.2558126476076285 -0.548371325263343 0.1594356749384221 -0.0525126934968714 -0.7912375769607379 -0.6436885815124495 1.519422154794436 -0.4200696432356017 0.6482935057692816 0.08057462929562921 0.1240558471246963 -0.452483730501867 0.2028156006371562 -0.6233118863667476 -0.05930814679296988 -0.5324588941988098 -0.8229334196873249 -0.726136394352495 0.3293874255821017 
-0.3704028416979105 0.1153416976646281 -0.8101657183513905 0.70287732252986 0.08362078463207696 -0.05906158577547125 -0.4955787817595728 -0.06113110980841771 0.06205769634473568 1.003292963467343 -0.4376101053150063 -0.4353443768718079 0.6033565190226575 -0.2699330018861158 0.7702914744124771 -1.101766418076287 0.6470246561724267 0.625975838310123 0.4636128923441844 0.9624682572015437 
0.1968465330128999 0.003097767179873 0.1197000920172682 -0.5906336075807754 0.4893152494281893 0.414203014723905 -0.3872754451291914 -0.4377747833681616 0.6698271175713058 -0.01643283493270541 0.2157091586522333 0.1027576112087862 0.4013353512405335 -0.04757581965838025 -0.6784643514700198 0.4006260169872276 0.80319975112355 0.6658723870926828 0.874859615221381 0.527598367304528 
-0.5204730683245282 0.6896911534673283 0.006836217989906581 -0.3668750725050476 -0.5021017388052702 0.02704763732543344 -0.2265202740765351 -0.0230878382964688 -0.4839396513577616 -0.7471825523497233 0.09018853445200468 0.2629901034121396 -0.2260601821263304 -0.3170191530039616 0.5120191870691703 -0.2243444602236973 -1.00285339231358 0.2976452819202747 0.2136620581230508 0.4481364338263121 
-0.9192089650883 -0.01686928231356957 -0.1786522002943235 -0.2433301506373944 -0.5522577628228552 -0.145628615524672 -0.3781368969960413 0.0907499885758306 0.003027218005028101 0.1945234220275082 -0.1326107062066086 0.07140249502852801 -0.618287552191277 -0.05003140775064678 -0.1046793362877838 -0.9684827397999836 -0.3321185833129225 -0.8532324249107353 0.06611951020536022 -0.9917715844276264 
-0.060287103572355 0.580845800353096 0.5733464253261024 -0.07752891643085189 -0.1143298751478708 0.06448358746876273 0.458843665444481 0.9627503348716882 -0.4637725182208823 -0.1906560541218255 0.5177170423453871 0.2460398695427831 0.1017280425802236 -0.08011346699443078 0.0225109709417729 -0.1399621644669158 -0.7129070945665115 0.4152777116585099 0.720477269802634 0.4705067130073704 
-0.209896649170516 -0.1123985792974917 0.4830381833544992 0.3896620452627971 -0.2635942097173939 -0.3674206674175027 -0.4531897955209105 -0.6167997597104375 0.3161397897791627 -0.2626974406641291 -0.4640156890221366 -0.1778970985177532 0.1341267139765721 -1.449610675052613 -0.3520578537687155 -0.4668041494181688 -0.6551882774286306 0.169294979320501 -0.07628331856762346 -0.2910535305997051 
-0.08391849785709335 -0.01555648884727137 1.242967188604007 -0.108580636385766 0.1978804724509366 -0.4631077146898998 0.02623017663257198 -0.1937206555203244 -0.05188222634072094 -0.5158396643852593 0.6043806731175564 -0.3012572806718427 -0.6212188711365715 0.9824961549347866 0.1869989204752409 -0.5021604295860191 0.5000121992768276 0.5183576422678747 0.09664692768790495 -0.4339420749153059 
-0.2887218663393659 0.1882793283113714 0.271585959629244 -0.07676257904414097 -0.384301329607746 0.3680110151754767 0.5453314062046379 -0.8517819014004484 0.5356104061461924 -0.7445676764904563 0.1892493281364122 0.2023398095309948 0.02863074092673681 -0.06359072863041967 1.018593970959986 0.1575408498089654 0.1013239550232083 0.0142756817879942 -0.2583686901691098 -0.6955756412607659 
0.4935599541966831 0.6719406520384313 0.2133498176900644 -0.2761484583643899 -0.1520976970249977 0.2347717960241221 -1.308877937892364 -0.3124762719868134 -0.01434853821219378 -0.6523737771637869 0.8095994161860773 0.03657409717041819 0.02455308519458641 0.4053468199615928 -0.6713895657072547 0.3902916803661077 0.1672328745360527 -0.126209791545893 -0.4169376903381234 -0.02894755208392304 
-0.6533029319839581 -0.6731713536759601 -0.0733354787866551 -0.006182386676196711 -0.7472888136962742 0.447946896458259 0.2337601429715788 1.611261951858483 0.001954954890088578 -0.6307882901470573 0.4356760230389375 -0.1524274849061799 0.6560810768858182 0.7093493747748996 1.051210045121678 -0.839059891545506 0.09991829445467133 -0.1521559437197031 0.0451789353031041 0.2387629079771901 
-0.1593083897357282 0.07502031696791382 -0.1345726466660069 0.268003084797737 -0.3015725779067438 -0.004775126777460188 0.787269348506675 0.7388031751618613 -0.2560683805012346 -0.4939297947853287 -0.04416321794083573 0.3566576093512621 0.01611294931667472 0.6606831257648363 0.4577144016234056 0.6900696326856874 -0.6363106227038224 0.9568788831850529 -0.3948128509528961 -0.1607622264160498 
-0.8614078874925677 -0.4071039397549616 0.7340432607217167 0.3507226881042195 0.006650427677264235 -0.2003631702277768 0.3106383641970464 0.120625575308615 -0.5193674195677006 0.4847651933111415 0.3195520521991255 0.09220973262357478 0.3091085938896525 -0.152559145938337 0.1869238164323309 -0.1741161919103483 0.3810236406740525 0.7963533111204222 0.2612863423615543 0.3094360904603994 
0.387337529119126 -0.294283119037772 -0.3339380808368995 0.52763516378496 -0.558085756165107 -0.1062675900283786 -0.4800927170440842 0.3704761288901459 -0.185701921440238 0.9821587007505399 -1.080932777923117 0.7151787116561892 -0.2288049666963942 -0.434966586483182 -0.4433198448938777 -1.1109271711188 0.8575194309286243 -0.04197735486384717 0.3623775235877343 -0.4905623110786413 
0.460359419203828 0.09996872937044957 -0.3338458375550239 -0.316582621725826 -0.09432029388764079 0.5280261281577904 -0.2691933077654274 1.458413229096084 -0.1819358400040417 0.3433964519760137 -0.4351636911434317 0.09429202517989502 0.4282949742843247 -0.0899097264626869 -0.3098588623589473 -0.5500564116736596 -0.1095850433055192 -0.683998618696084 0.4636539557872802 -0.3237866524416866 
0.128706262779142 -0.2749436955081578 0.06345527830117291 0.05096669096661675 -0.1490119273568693 -0.7247391088786213 0.01280051892528348 0.1829534850940615 -0.4465834922886529 0.6054486853304809 0.3571104738963787 0.08636717687387738 -0.2230603985391605 -0.105013039322051 0.665244902171412 -0.6809879924013624 0.2743159352044086 -0.02587249656634036 0.06230718113530247 -0.1592930926453339 
0.275751470388087 0.01336849680451288 0.3247587174368474 0.2630989220817788 0.8114835031560853 0.7112146912421707 -0.2881209590058146 -0.3519293044183656 -0.1039393471472915 -0.5961430725938139 0.5946065431099431 0.1408117343433643 -0.1574526118846618 0.699140464105296 -0.03397470690320621 0.2263222114125442 0.3191841854773986 -0.3577119697025573 -0.8036257716016956 -0.1547128952745808 
0.02192523299456951 -0.1588762980207646 -0.07342097401065158 -0.01456312475501173 0.1822510392188827 0.2467222903132917 -1.028234427773391 1.161131137842239 -0.9329323235924322 -0.04996440864471929 -0.1319221017183018 0.5057249541894225 0.8205022153382773 0.602566839288557 0.4249056016767764 -0.4471660523523091 1.076043228740471 0.3012633217900511 -0.4686130674850956 0.3955277065820848 
-0.4339891364815803 0.6835526836742458 -0.5026048919007647 -0.1502281575881658 0.1657062135898036 -0.2022099143770477 -0.1076686918353167 -0.3900410812593734 0.1963862557426635 -0.5380478357933132 -0.09721976553213954 0.5299672140708768 0.2814748948581786 -0.4396788036913739 -0.2392692591279034 -0.621343637865797 -0.08182758171394079 0.4073894876226188 0.4121312674797848 -0.4043398235427643 
-0.06520331868422077 -0.7080093689981121 1.008796596663021 0.350126090131979 -0.1172112434300823 0.2003995642139276 0.03683922704827768 0.2235983464569564 -0.07776043678981724 0.1094189215689759 -0.6705299383166498 -0.1976665517929614 0.007039751256104421 -1.141086846881071 -1.557213128487564 0.0449124184165458 -0.2189131321535167 -0.4900006778323259 -0.3377187370496018 0.1132351771289425 
0.08685266227432796 -0.1590313940719249 0.1489136099089694 0.5530026201902525 0.1588234868109546 0.1810621082039912 0.4983098232313204 0.4990537788876439 0.2333880827151402 -0.02392981306080921 0.3274557357412691 0.5113355106723593 0.2220944157891563 -1.180955514858793 0.07683575518184491 0.2636352004729358 -0.1273887946520197 0.02646343352458739 -0.1156433663092974 -0.238850816141422 
-0.3303875161442955 -0.2664045639183776 -0.8836072855745163 0.3825518899618227 0.1055262055098521 0.1003709305748176 0.2251874656501169 -0.7073560872962605 0.267348597017857 -0.3782764789294102 -0.05161207357931317 -0.1321920171582807 0.07799008171997694 0.2541911604598504 0.222184440607585 -0.2641831505566123 -0.04803913422979832 -0.8191892580064761 -0.2767551392620258 -0.2585155736077009 
0.6317258458292444 0.7578449395295154 0.2016461499545302 0.3869505857620707 0.1913625443470169 0.2477448411162049 0.8790422794527979 -0.1222603774103079 -0.1692956297747967 -0.2052621559293692 -0.3544132706476928 0.07152048960697942 -0.315111971332658 -0.02654996890468246 -0.382161217168494 -0.4615679334477389 -0.7751922698919007 -0.1276481366593079 -0.153923504118931 0.2600804724228275 
-0.3770921816446614 -0.06572527576222974 -0.7964764006050062 0.2949117978168351 0.3355863246916883 -0.2159759321774536 -0.5818751988810955 0.3752140928472905 0.04896285299619711 0.08383694631333946 -0.6035701555780202 0.3305376837992995 0.4573133683287282 0.1190495055961175 0.1445379637817886 -0.02004783726145937 0.1212818463918095 0.606986896888434 -0.3165144011720976 -0.07720685529644425 
-0.2089483766935574 0.2015469977468874 0.2304555096251736 0.1921473799792373 -0.5586582994810134 -0.3412448577749307 1.446427594912646 0.0661058793004638 -0.0424613694619659 1.171043183442101 -0.5491225178470674 0.2984553599066693 -0.3461684294449767 -0.02210175204325006 0.5557474723215775 -0.2281650779736909 0.6589811660808403 -0.003109102695745589 0.826199228500627 0.4166187344337594 
0.01987158890238822 0.5760135078494621 -0.05230552695936833 0.3635887404795847 0.2332728734472347 0.5413173795996472 -0.09885725044153448 0.1860186590717009 -0.3692785860631174 0.3465185255703641 -0.01252444851148249 0.253112148101127 -0.07322134688085812 0.4789928557694482 0.3231287461994156 -0.8784171564523562 -0.2015724638173256 0.8916496914313981 -0.3100689707657668 0.1474726592713264 
-1.073350204061312 0.2698606059434437 -0.1155557403397559 -0.3302058249824232 0.4989285573215537 -0.9879765635711284 0.7710549409500941 0.7751206460041394 0.5674382085896477 -0.7907358913268949 0.3355059728138193 0.5076627329333424 -0.4575016409827302 0.5375572538578349 1.077154972721963 0.9605664383021357 0.0007751107410723934 0.3830703056658161 -0.1662993020905079 -0.1643931890501787 
0.2109790159187791 -0.2253556948483691 0.3676150860508988 0.1594987857810627 -0.2569408152405687 0.02671127146698028 -0.1088875116725546 0.186223930794514 -0.7777762439053931 -0.1194191295755587 0.2553098360267008 -0.6026569851008896 0.6786380619733553 -0.4366709277853142 0.2448361476635842 -0.7886174212928353 0.3762884382590448 0.2279095360204859 -0.2023493545540777 -0.4440074824233083 
0.2994375947550342 0.6956830862454142 0.003979041321353393 0.1817888939845147 -0.2465609719845663 -1.280454385383879 -0.06448862371181313 0.1884806262585269 0.3099258868321147 0.002882922009667471 0.1492053742834103 0.3304137763299156 0.4380436676592512 0.02979240547311937 -0.2312435312597733 -0.2659750074449346 0.3853228969297291 0.1070041450446544 0.2889053900642347 0.07955552181223043 
-0.3331986854253933 0.3530966048220462 -0.2020998281439407 -0.02614324906161756 0.2570207986889538 -0.08118625826123022 -0.3094283224856137 0.05002938047326236 0.1979291400924361 -0.4724525727554248 -0.02307896195207284 -0.3250448139223931 0.6533917334086619 0.3807960266108906 -0.9575546703397062 0.3724814972288089 -0.09279642298926316 -1.509908370224877 0.5643188266818056 0.6495464946836605 
-0.09234766694666706 -0.06029430838721993 -0.5427947282759542 0.7535121256499573 -0.5242773547545635 0.3079564101504395 -0.4229233746872465 0.8636012705558072 -0.4631234999667045 -0.01055554582121808 -0.3623565343383224 0.2449572120203435 -0.261726346507462 0.6762421281643323 0.5976243755390775 -0.8323343350542129 -0.2780389384352738 -0.3163219426330665 -0.08084785142429313 -1.030866343062778 
0.05513017079947822 0.06768055035026636 -0.03801282156969937 -0.09764523560892115 -0.2638279466805805 -0.877087886012496 0.2427887899534273 0.1460133069759049 -0.09344229474116432 0.754587120336432 -0.1847133455559867 -0.2006974139936002 -0.2701488211936283 0.3548380940139907 -0.1608171101839323 -0.680376995544393 0.1302082038865401 0.4419530702355735 -0.9246690672970256 0.0991482986002581 
-0.01746680433290915 -0.3836694475092531 0.5515945116992474 0.0622748338894512 -0.2740163413024159 0.3083877646847081 0.04108048916043197 0.4198289640842425 -0.01191518655160663 0.2588571847223473 -1.145783719834204 -0.3979819656540136 0.07268415421631866 -0.4953812666344393 0.6519251407462743 0.2853974376907198 0.1655696903370314 -0.3230738531533792 0.2181301966278076 -0.1624016647416952 
-0.5315435689484579 0.4642856706245226 -0.5538242571722541 0.09536627076872806 0.1580756374126589 -0.1918280773309159 -0.01864004771555215 0.05935915164810001 -0.13485158580585 -0.008333274639984397 -0.03020404840010548 0.6884205715052596 0.511132984233474 0.7702285058034763 0.9154239457328297 0.4272610458001195 0.1048329543083728 0.2696086649467287 -0.3543742228838649 -0.5821354267842163 
0.1859221018851379 -0.4376917825265746 -0.3490447954533187 -0.3768475524294371 0.934198691225179 0.4197956879220879 0.6913876417421753 0.001140314368969476 -0.184466968702556 -0.05333295072241361 0.102086276267147 0.544807242313286 -0.003703633036501613 -0.1340511810636693 0.1548228566170162 -0.6026086911517023 0.1360312415989472 -0.1550204911541352 -0.4756677643617111 0.03487667237182956 
0.09596660155327523 -0.03887575566910911 0.1612553486133358 -0.4950376672440189 0.5729508170736647 0.06478328376084229 1.312505833440838 -0.3330704915257734 0.2255708478872706 -0.008790747285302946 0.592792301085175 0.01659916634585431 0.480832220374743 0.2812887188310016 0.3712067909608195 0.0347302417390309 -0.0895054046171045 -0.02352563996944541 0.8542112402860478 0.02485142589864964 
0.006247502077092518 0.9402149763245843 -0.5518226134713466 0.1792698340670623 -0.5797637923308907 -0.3309954050157319 0.4579596706276458 -0.2190150454972823 0.2205393739331115 0.007278653861438831 0.1252398357603407 -0.5388643819552469 -0.02259246284136226 -0.919904069297137 -0.5234551095457317 0.8121929275930438 1.14952614179916 0.2087298833000726 -0.7104417109237959 -0.04841891848564928 
0.6209365194802023 -0.266080721997221 -1.01554235176927 0.5944996469178019 0.1868304146217636 0.2174993943656882 -0.03730858408283688 -0.4418545082909778 0.3279366903850463 -0.7951484780457295 0.282271616203951 0.1242868932999943 -0.1545617925233896 0.2440716149105548 -0.7123236328640407 -0.1207606753969827 -0.3052441578836526 -0.1841506913105018 0.5020108270030004 -0.003605908452709276 
1.004296618127686 0.3326051287662307 0.7195176769872388 0.3870413093370695 0.3934916351770493 -0.1214898468073617 -0.8404812035952485 1.188440131948339 0.4665977253958322 -0.2402412017821465 -1.310913141633908 0.4179373843811596 0.5522351688775989 -0.1001602073869029 -0.4707408515248532 0.1993976659627202 -0.1709156844030011 -0.1074673208323712 0.1068711679810717 0.1208303141062796 
-0.2752675389197607 -0.3677716508739569 -0.5159950960574911 -0.3431048521612199 -0.3379266209997001 0.7250817389712 0.5726309398490305 -0.04571075175589467 -1.05248199199605 0.3564414950460813 0.6274721722403088 0.3195442718111806 -0.4211709186605747 -0.06320544572357471 0.4773589325597318 -0.4400129540282305 0.8738268265151454 -0.188708684271191 -0.4156547807586598 0.1376090343306201 
0.1719556010355976 -0.3649900575227466 -0.2214052565651702 0.1413879190797351 0.4504837696405794 0.1459758790830418 0.6482116630154795 -0.06173011373117637 -0.07154753629341221 -0.4008100693779988 0.3619555164690751 -0.05497091904625993 0.1819486934031961 -0.78321521238061 -0.06490634671116441 0.5357573728134253 -0.6437144871850761 -0.02938881929280144 0.7345704293340464 0.0754409752110673 
-0.06446508379769054 -0.5687428442912199 -0.3766529960963246 0.1405104746427618 -0.7285893354625996 0.3227128942623821 0.2182074304398098 -1.742240441477796 -0.4446269815869272 0.6031249438973166 -0.5165022073068979 -0.2132423733042844 0.02248018000034304 0.3671024349432537 -0.08146045975711168 0.5736418107585043 0.642890149262719 -0.271851903277452 0.8375083102671642 -0.6373843444281818 
0.1890347403186755 -0.5044476783981786 -0.5950682540544394 -0.03571440291410952 -0.01904761590090349 -0.3202169837461522 -0.2114119403292571 0.3904133032804724 0.1124544113355501 -0.30347562062191 -0.1424417731469571 0.1487510821730482 0.0814396995931492 -0.6446819002878539 -0.2345725626388016 0.3764439641367514 0.7090704517314526 0.08521470815406242 -0.7304340431422489 -0.3387409230545614 
0.2450410188113744 -0.2058886207590772 -0.4233104379864742 0.6472059658349725 -0.4248010579582391 -0.03418378189236765 0.408282683151264 0.2668371719629484 -0.4296714915144685 0.5696914158895314 -0.007834125023748844 -0.2037555062326927 0.6376769171818717 -0.480579378379323 -0.3761888612932581 1.261456957283063 0.4794862411115436 0.1911064919352874 -0.1193017217750613 0.204543283669909 
0.7207578984861923 0.2253092276052158 -0.1633792500069123 -0.8467506570560522 0.003523037181670683 -0.244936636352322 0.8191418111523577 0.6091277924846774 0.1634045423636081 -0.1917880082998576 0.4660762116642514 0.07521251630890047 -0.2407883724201027 -0.1409846019463646 -1.255459842859896 0.2128018453654195 -0.6577935131347716 0.4446193475220236 0.6536429958573371 0.04260851504383678 
-0.1280321360445701 -0.4226737098404669 0.6169754983528321 -0.2318312962686581 0.920056341217793 -0.3215434959467011 -0.792927823058368 -0.5406060020518684 -0.219165271623108 0.2049578542812031 -0.4609175305728749 -0.7935647904542811 -0.1801486483231243 -0.4715318646576416 -0.9786785629971215 -0.1809737621488049 -0.3638328631691046 -0.4389501418727378 -0.1553704995434593 0.167735429683169 
-0.270636839642149 -0.406377811933761 -0.8012641063814301 0.3986409003342284 0.5902130036937163 -0.9246410995258428 0.1234128134071907 -0.262755909636027 0.2028678200733561 0.2365117791770974 0.2270722749331458 -0.6169101987625183 0.03430210842902229 -0.2085065638708288 0.9954741557134807 0.09659457867645369 1.121616276916532 -0.9254968704006139 0.1134578160818668 -0.221178518572549 
1.009778727410545 -0.2142599578106184 -0.09450602208071948 -0.364419990470399 0.4498493723947538 0.2958610082517028 -0.1320342735903659 0.5107360040336413 -0.09141552678256311 -0.02257946289478219 0.02045378440210618 -0.007633122169056779 -0.8139995972772572 -0.188750530138066 -0.4534533122522831 -0.05300689649231703 -0.5911805685843275 0.1179854552357603 -0.2499309980928888 0.004121903501129055 
0.2853014308303783 -0.1343649840376499 0.2323419930116757 -0.214860522421869 -0.2170706445218384 -0.9095795544740847 -0.07638556604924736 0.3879742446030249 -0.3641233947288389 0.1600242352201429 -0.7312953779525857 -0.2395000990247844 -0.1006455500741153 0.5878674323099823 0.4742620221778223 -1.01027865527125 0.9458861546716423 -0.3701663914839877 -0.08269794171632801 -0.7203648223816193 
-0.6273787541557647 0.2663107827769547 -0.1098798042965114 -0.04556688866980031 -0.2036114288201396 -0.2972711031709306 -0.9216117579797946 0.07484027122122766 -0.2049347370080471 -0.3555310424420394 -0.3953986190937995 -0.3993603229606275 0.05891331669431484 -0.3906659985407671 0.153474351864812 0.6444730256506048 -0.6804317229919778 -0.9600155552086804 -0.3592442610969216 -0.4287479851380642 
-0.07276673170223744 -0.01889658059934891 0.2276663220706026 0.196800894290564 0.05804943945635854 -0.4953590525622986 -0.3410953264128798 0.6940026890264996 0.05429326928572403 0.00859373154267783 0.2082253686216282 -0.09807501100647126 0.07668911114334989 0.1618333080980019 -0.3915671404208417 0.5775151341471394 -0.2597950323767508 0.06482932597641305 0.01258840867301456 -0.1001995600635042 
-0.5830118161615422 0.09135318153382994 -0.6641915534495778 -0.0770494979799746 0.9360942206688497 0.3137693255082051 -0.1131721686149593 -0.7159583067468828 0.03698212288757918 -0.5288392434952304 -0.3272048586124935 -1.230219295766357 0.4431782986401281 -0.08315239951774513 -0.1891551250736461 0.5322189614626222 0.2794293275462571 -0.6706776870770839 0.2446558319170088 -0.5718078007466987 
0.6015480174285178 0.0338676939442082 -0.1089270018434067 0.07200036073866584 0.3192244661154133 -0.2208707011473718 0.2716466004023841 -0.1723703730389144 0.01684605811289925 0.5227138723158784 0.5442153542586559 -0.230738613620497 0.4116628163625214 0.0959390402756492 0.4390962838615705 0.1905513772461562 -0.4463559111142516 0.4754338214936428 0.204376673889009 -0.768212150342933 
-0.3857061247662422 -0.4037308172815994 0.2335339755870558 0.2930534954417586 -0.6405535917212247 -0.3845910491216551 -0.169748677066814 0.2635989319857623 -0.07040653534914426 -0.4090066097869769 0.1128678851008736 0.8631600888813745 0.292397946526556 -0.01181187771160702 0.2108887722638381 0.1219287669223221 -0.530924473763107 0.4871290610645103 -0.4059043081955498 -0.09684612542910329 
0.008278912128042201 0.1335217537307708 0.2169312971410772 0.1168397601192058 -0.2833657720508938 0.4153887842202875 -0.12442105465823 0.2670036254272068 -0.6525654154899309 0.03506768151588928 -0.1684591359780067 0.09247721683691645 -0.7017931208521382 -0.0451588423640818 -0.8411326721321697 -0.35476848958647 -0.5397482905635121 0.122212794737094 0.04707402361164837 0.412482183480515 
-0.612160649683092 -0.1558578587744581 0.3813407704127882 0.3092563639845764 0.9298061076664706 -0.3609971333107527 -0.06538009012454504 0.008391884014030463 0.1033799649905978 0.8728335966539346 -0.4694903124202593 0.1205483843438062 0.5096298381257214 0.1373696709928478 0.4362744715142233 0.3839920296305088 -0.8882504890861821 -0.6106260434718629 -0.04025691694211549 0.3681819379010045 
0.2019236242945071 0.1311772406844298 0.5715562335021576 -0.06650219290295149 -0.3105732712538142 0.6701630953640247 0.0002864972219282554 -0.5920948565550632 -0.09803074599900333 -0.5715337416180811 0.4355267349644639 -0.09227439697739535 0.2966681547112086 -0.3383451895021063 0.3297510337966293 0.6319542662597064 0.1454050645217561 -0.3506446768275586 0.335118473307206 -0.3085623265316025 
-0.137488867086898 -0.2137963409681935 0.1041515498013456 -0.1273560104778439 1.754016972491259 -0.3351488659429438 -0.5401710597898661 -0.06975098107855368 -0.170876433011427 -0.7707230955242 -0.6314332833891818 0.01821557866792137 -0.06519019204827954 -0.5604103071772003 1.023357007478621 -0.5876856201240761 -0.59343583586814 -0.1130705930503398 0.8090983160129286 -0.09532901024396107 
-0.3966097567165557 0.3985135565130034 -0.4221531347218458 0.1403331585514015 0.09578228162226032 0.1870522183043809 0.2011280138504826 0.03515854307431091 0.4688286941805664 0.08572824189309698 0.2133539538822262 0.01064143817199443 0.9355925343793933 0.269458560910816 -0.4186396386399945 -0.2556614247545108 -0.2372645647323279 -0.4116727151533243 -0.3181765085393516 -0.6012685744130764 
-1.009772852451888 -0.1513901556039981 -0.1449148873156069 -0.6136052239930611 -0.2580575202350241 0.1710249917369505 0.2365027496687581 -0.1745138013466877 0.1467708310134106 -0.4865407298706824 -0.1661159521142205 -0.04153807893006638 -0.4844623064919182 -0.3387065895227452 -0.337152654717877 -0.6203623098661885 0.9911541791528722 -0.1300325011411465 -0.340701742865273 0.05962776755692463 
0.9890622534647514 -0.263203714339301 0.3404026307381666 -0.06160255425071209 0.3882419463552437 0.3333536344533529 -0.4719376684643667 0.4245246950617042 0.03288734738679579 -0.2463605632948393 -0.3947802311460754 -0.3113838301899408 -0.1858388050748455 0.2488018138371502 -0.1432918763720653 -0.1713654440095065 -1.032564872621175 0.3242385609851977 -0.04433910696738513 0.5158072616671845 
-0.2408363518085245 -0.2124634651378938 0.1849905074628921 -0.3243558904660533 -0.0799067707429386 -0.1768219490709111 -1.072580795758646 0.8234512215625224 -0.820191752612655 0.01562857101169365 -0.161021783476879 0.4343754379081908 0.1215481281087255 -0.07068627491425716 -0.899657858692825 -0.5067412547823773 0.2050056654440038 -0.1337187615094472 -0.8179869945207165 -0.19500324879348 
0.1474817182009469 -0.00214964744297062 0.0398476637828625 -0.2236606162457848 -0.6186144356501078 0.3861861744401686 -0.02804825627475888 -0.4887876426318606 0.1550177257344011 0.4122867704156841 0.3219508396071842 -0.02542274127930637 0.09209771303766187 -0.3613917604283522 -0.09546966734840433 0.2838020515463754 -0.8280917070054302 -0.5215893565411447 -0.1354607249090612 -0.03085442987004747 
0.3263599477558052 -0.03246295940506493 -0.3979658303157765 -0.1189295174244389 0.320600595357727 0.7714319598954018 0.640559865979005 -1.098284683231958 0.1695522682433233 0.13118271715393 0.06578373631895841 0.2494809472843403 -0.02367691056845249 0.2271619291225572 0.1885728976910658 -1.703173364821728 -0.03850011721915161 -0.3009199107666075 0.6116914750908647 0.4316761822586987 
0.4716581116537651 0.2620587295643266 -0.1886256552295442 -0.3536899495881042 0.2214931816072929 -0.2838388425798898 -1.524836672239772 -0.8923523085867211 0.2123287425316928 0.8642172560221126 -0.1739195792831209 0.4043314091799745 -0.3652835146171118 0.2773441741387866 0.8135234425674799 0.3125216189332846 -0.2423274800326129 0.4652242074243967 -0.4035254948900579 -0.2289228670312816 
0.626376269082228 -0.1131216558822115 -0.2257641776903068 0.381114869544959 -0.06172237942785419 -0.02249919219622624 0.1625471146331316 0.429367647705482 -0.2854536153589516 0.3579434315829482 0.181655385679668 0.1996715093428416 0.1428260099943414 -0.07271264349779655 0.3594699756711421 0.5330722365385648 0.742641974870364 0.5841009745469696 0.8887218229070625 0.4217467172722893 
0.09099425163611061 -0.2392968938606967 -0.1010111687581913 -0.1211955597124165 0.497133444189653 0.3642295413860208 -0.4389416829390519 -0.3794455007525814 0.3011295003836691 0.09601966332848499 -0.555375081638514 0.2101382543244228 0.7072487786331209 1.083799465327242 1.115639990350948 -0.7340866479550191 -0.1978469915574479 0.08525581062987032 0.02128978967485554 0.5300878999115906 
-0.1252001705997698 0.6726323586480925 -0.7616843866896659 -0.003328750640459848 0.1548811263476413 0.6920165686785397 -0.3000154188376409 0.3083793064563101 -0.1576472199336245 -0.5249906261598319 0.3400138127533126 -0.03438149782553097 -0.371257578790832 0.05104065224601718 -0.3323153224881347 0.6764032255508078 0.1297654500166249 0.4073421693658428 -0.1023697193480017 -0.9333287213533086 
0.3389336610527598 0.1955987670626371 0.6869903614181518 -0.1415323338644303 0.009029401653453053 -0.4349842195524616 0.3216710772892838 -0.7970248995574816 -0.1286832024737157 0.4965827726562947 -0.2412439248791149 0.3400489700362113 -0.5789770324932564 -0.01602126970571697 0.1422210121289069 -0.2634903443697391 0.7284023110319789 -0.2470227791555112 0.2470781630882943 0.02956801698797435 
-0.7159002367800781 -0.1607459886245008 -0.1708910575891506 0.05908758590842197 0.08184606345176103 0.1402733441421388 -0.3724627731030243 -0.4810045928651594 0.005050698505897457 0.5077792188992467 0.457680918134098 -0.1137292104410278 0.3721739496108985 0.1719924875933738 -0.586936484485021 -0.5992185965915325 -0.7927037297756192 0.5382723075204084 -0.1325802334315234 -0.4536790906737957 
0.9389778147163483 -0.04800037372752002 0.07474569959293516 -0.04547247184502193 0.2185796759554654 0.1432418193222679 0.2216523063491595 0.5555788881280812 0.02202865270337729 -0.506108586147569 0.9615977330653908 -0.4752606615712499 0.06408827783623432 0.7407082698466149 -0.2332218551858236 -0.1822528273661055 0.424116080363161 -0.1746904201524976 0.8264752776970151 0.1050812798732148 
-0.5286114751217378 0.2595400407740652 0.2053419850032972 0.2717845311331094 0.02165939952729182 0.4981064244401051 -0.2966132215317301 0.6783695389979941 0.3479181791566326 0.1979493361200332 -0.5098480344570436 0.1187476813674221 0.1366155531002098 -0.2347337201422921 -0.7490813531295449 0.5990958561278834 0.0820936383018981 -0.4141836198999984 -0.1953064547696227 0.4290071349503256 
0.3873844047791228 -0.5252239367104142 -0.05550534165169473 0.1622917697246229 0.3891297571546882 0.5224209096039615 -1.240976292307409 0.6248483681310837 0.9417420114026912 -0.1688320453683884 -0.3227790579566353 -0.2102974460040291 0.284224535782503 -0.5855398604464753 -0.0816657046066071 -0.2095970225177325 -0.2186628023541378 -1.209236867126339 0.5374403018556805 -0.1851551494498638 
0.4379894161210393 -0.8648551521548685 -0.01153255661292245 -0.4951506369911974 -0.1419462328667546 -0.6236586381205104 0.3772581069895612 0.2584642813890468 0.5149165545014494 0.1745000862262118 -0.8492630453709324 0.2367791761138514 0.09525662243566924 -0.07891250692203308 -0.3026290200047543 -0.2955710850925483 -0.3343250169794461 -0.2675738468402579 -0.4912825282365038 0.8018047391173272 
0.319468370052942 -0.4010246196295513 0.6513954883596947 0.6123167609754206 0.3492001823143013 -0.1982597298551652 -0.5963051291183189 -0.1454352881342957 -0.8559813928032788 0.04503300181566867 0.4554123369188849 0.3181989397519143 -0.0898778168122073 -0.4731559730065534 -0.3174072528376979 -0.1172030993370354 -0.5000103939770695 0.4894532537157271 -0.02533477855114558 -0.3304814563426209 
-0.4203222738534543 -0.09933204802229829 0.02908380215852352 0.2394912334269398 -0.2126556955773823 -0.2732854513547198 -0.2064750342556173 0.5329785355161819 0.1050055948344472 -0.1735034138385032 0.8266010751909351 -0.3258596172589517 -0.05900372744222541 -0.8269266316937077 0.1825971543903793 -0.2096123597448261 -0.8246706425809166 -0.4169233321474524 0.7300430111005419 0.03732951424195696 
-0.1047926616238027 0.263527736041788 -1.051079372132585 -0.4669256918904597 -0.7595069958747275 -0.03111723283956948 -0.1631745507097927 0.269267181077933 0.2669063498812805 0.1749633940600446 0.8789735359834536 -0.01230544351741908 -0.3432080370820225 0.5323037554401573 0.455590209218882 0.6737533975187118 -0.3839676733364623 0.3648228256952313 -0.2283583135014581 0.2688184547501101 
-0.493847661553368 -0.1593818165197166 0.02785468827992306 -0.2970043800555184 0.1627986171573975 0.2775657859955739 0.2379509114668833 -0.6057336111499281 -0.08083032572265135 -0.2668250239048813 -0.02390105074103087 0.05866763081669928 0.1520868619161739 -0.2426596076181363 -1.70734303207736 -0.1677479385304371 0.1015847505747354 -0.006756328705221035 0.42890896973833 -0.0143334328861486 
-0.4814412403324619 0.0351052034691531 -0.1805123505551044 -0.5095662305688138 0.03544487895236016 0.2607910665322359 0.3935522098912178 -1.113146859862848 0.6809254263393365 -0.2870673857694243 0.1332386166405075 -0.4561168638244244 0.1603581801617507 0.2990054664802457 0.2896732161453402 -0.4123071541731025 1.259631030118476 -0.11143294557611 -0.5761090849790892 0.4389047667208157 
0.4575744676086059 0.02175177471608307 -0.1134160758536744 0.7324307419274394 -0.213480501521337 0.01062518607701379 0.1547376706546398 0.7918912433155895 -0.01618228051069458 -0.8415416895140216 -0.3546319029522893 9.840091911421486e-05 0.3828369826466823 1.224012509741295 0.4840890689574136 -0.2367608315383549 -0.6474934732798533 0.4967397907971509 -0.36937928010303 -0.2307818504603818 
-0.5129867009521358 -0.7079278966395016 -0.5048046826243556 -0.1970057344639135 -0.0357653914257409 0.1999363675976531 0.5141578461126582 -0.7939859241145951 0.2688056615391387 0.3468826812282313 -0.1072248176506851 -0.007997647955539785 -0.01758569600099302 0.542603038168892 0.1586633383683911 -0.6145517348857467 0.9999855853567871 -0.5691618140440392 -0.6038473844170118 0.8261121420144413 
0.3697705011963331 0.5615542653361709 -0.5795019823739607 0.2800779746799701 0.06545017144188488 0.1421504952393073 -0.1533367959264611 0.01716104967531832 -0.216740295005657 0.4544787647279232 -1.004164631832802 -0.07964660177434425 -0.5165448112082706 -0.1602834084974839 -0.3531995143858204 0.06375555591448606 -0.3022175140029675 -0.4129854101588635 0.5561378476252079 0.06024326031003178 
-0.7170358603394998 0.03950037594730135 0.946828732731162 -0.09853062128285778 0.6069505960207408 -0.01584850991215734 -0.07497035096248136 0.319717698888392 -0.05972793985987004 0.9253079406478844 -0.06937181683466521 0.3254922074921311 -0.536652012587697 0.08836919636327545 0.3372759800419837 0.7525242273892607 1.258897400757149 -0.1022240753652632 0.3410381470690469 0.0267864199294445 
1.478195296205156 0.8459938693303752 0.001842868996902116 0.04008352849617571 -0.7491177387249299 -0.2288043986087658 -0.5654758162512441 0.01572098764348415 0.5504955571416302 0.6909049228812671 -0.2015253551739672 0.217860930144043 0.3702278916504152 0.5207779137857269 -0.2300410350698298 -0.9417908311209312 1.203399241889383 0.1920209828344173 0.7023636561187609 0.8628215072017643 
0.07989940679251285 0.2033659791679637 -0.4970398022980524 0.1209809906012513 0.0248712492762963 -0.587715253389965 0.1850859193324862 0.1039933602115862 -0.01496011332207882 -0.0168478588971447 -0.3507969118593459 0.02506178161953935 -0.8143039527876408 -0.3089205303961225 0.3148764789161095 -0.6597948938683854 0.225290630755909 -0.2853605916309461 -0.1255837084575874 -0.3799984150740738 
0.06545275789870225 -0.09586606129363334 0.4847908509215029 -0.2016932335901973 -0.414734148488077 0.2178417513452612 0.3421826504115059 0.7127131976283695 -0.2956440215655436 -0.2878193938422336 0.4570067330625755 -0.587617916336966 0.3082315220309882 0.1547731808380383 0.7579261105272846 0.1590605147597867 0.5341434475456984 0.1997055530124929 -0.3868402465864816 0.2264962150856623 
-0.7919637029176562 0.4546505586644222 0.03127893616695498 0.4238881294227054 -0.5678148165058513 0.1309860047125423 0.1855845539854722 0.7540748229120872 -0.1652128128168136 -0.003650100395428874 0.1263219626407965 -0.344569274748446 -0.2451534365278541 0.4297229882720889 -0.1057160928293323 1.28025500425085 0.6653104469277318 -0.01975828322752998 0.2530177914592309 -0.9085554519944303 
-0.304157289174548 0.5751308356419966 -0.2236260933255548 0.07419802514661784 -0.1111331463529871 -0.01644774786167505 0.04228995888785042 0.5966511428241865 0.3975624750727905 -0.07277284302216343 0.3000052825525213 0.6007375549260437 -0.313868204630562 -0.08865225392820626 -0.300651004103468 0.389708999656513 0.1520469723466869 0.6301543198457309 -0.6876619549837303 -0.3362829012915309 
0.4513558031670591 -0.4620269524981725 -0.9493820305641089 -0.1576608164490294 -0.5330120527849108 0.004172870196510012 -0.3715280016050047 -1.117094118132475 -0.1737644931121685 -1.068478693037159 0.4353798905457029 -0.9064847292164874 0.1021711043568938 0.02987378880887023 0.4894671776662618 -0.6332412040631239 -0.7774049869679125 -0.2200453360098492 -0.4469239109999032 0.1795041732187423 
0.4335182844088751 0.1850867964651296 -0.08272810599991703 0.2690060254339733 -0.5284569046017848 -1.054710281629594 1.164723767601778 0.1910871871961582 0.08782469470688491 0.5773089034304708 -0.2697928625394491 -0.1128384343397559 -0.08945775271522111 0.5432892792471413 -0.4258643267390324 0.2971365247603478 0.1252978967826564 0.3949714247628911 -0.1247565670372075 -0.3714019065800062 
0.5613552711051355 0.4451347431316401 0.2695474766238544 0.1345104107721365 -0.3624314853814248 0.08753094512959445 -0.00360426400447381 -0.150434376115496 0.2231142158026284 0.02182232285941467 -0.1281056494981189 -0.6050251582780752 0.2103514703776428 -0.02992146630153874 -0.4879835665318016 -0.680857485953932 -0.6812197442100536 0.5110969667944824 -0.219832500600709 -0.9773727224052996 
-0.2124980026764796 -0.1613225727072038 0.561708976887592 0.3512575463554324 0.6841790096335778 -0.3590743231559744 -0.3827322191601127 0.3688976004780109 -0.005114902818106027 -0.08726213668974069 0.1257836063754495 -0.1257236650509484 0.7785491758934168 0.3142379012391367 1.650710031108117 0.5711159231881502 0.1396616141955397 0.5441407419053196 -0.1867226176664522 0.1282052342619807 
-0.1590018078908828 0.04829646052683214 0.489937365551472 0.4506476649667996 0.5085477643772436 0.3244924613664494 0.1748279218158242 -0.05207542102651892 0.2010910304715978 0.4956593324450893 -0.2237923015022415 0.0150427763909301 -0.3143100412191593 0.486998871720552 0.007379695612310503 -0.06750680415597528 0.4910975176162066 -0.1181686513224655 -0.4247787898624941 0.503514088653539 
-0.0403671231548722 -0.3666259847902637 -0.1873062910243783 0.1069316212560096 -0.8673214135384291 0.2460476619985799 -0.04933327174278546 -0.9316476263191192 0.01291274487373247 -0.3582795604410152 -0.2636065974062744 -0.2936865036617636 -0.4940068623875507 0.08144073520893061 -0.1006063792714501 -0.4200874127785941 -0.417425409486156 -0.2066247770291801 1.032729338286718 -0.06001016935715517 
0.9922880786241081 0.2056189685705559 0.1422163549167924 -0.1989001974520193 0.1543954049697278 0.2575012346658623 -0.7423816507294326 1.216888060725165 -0.6145280155036971 0.6196879219711668 0.1665559889658159 -0.0404441094428719 0.0580690508538045 -0.6940389782915568 -0.5210709935410037 0.3439867541580374 -0.638969288965871 0.8459049108249659 -0.3521064944475067 0.3662357302445621 
0.2292282521080665 0.151665242418409 0.3539728024537362 0.4716359929513482 0.4330730158155892 -0.8352735784290136 0.1227069230982197 -0.04176993370613668 0.2536076243905732 0.5321196894062854 0.3643594897014819 -0.6412092105770781 0.2777210733366103 0.5655339173259595 -1.432504166655718 0.340925449110753 -0.1584504057655828 0.02073875801643237 -0.6431960845533831 0.7091726533770923 
0.6776325550900854 -0.126944633790232 0.10023363923049 -0.5922572715635154 0.2061884728427853 0.2143159674378525 -0.1818961406659208 0.8889998295673756 -0.3386708963900151 -0.8328656697037179 0.03216215406146723 -0.1961587265110524 -0.01190951559019274 -0.3067966747596551 -0.3808176933084888 0.3340417727234966 -0.319020722767304 -0.8582238934260656 0.2120101340010104 0.2219019782215182 
-0.1570391196427737 0.2963596018245758 0.726218259532869 0.6295715639484634 0.4468863079883399 -0.1919026971026928 0.6505195162942243 0.5288391181965847 -0.341817462736165 0.9084726912808286 -0.07416954105472975 0.4985020319583927 0.0782245508125949 0.372787030459633 -0.1757706257670663 -0.01443060808476881 0.6080177459833697 -0.2322874432684681 -0.4301889555407736 1.003232356553789 
-0.699708758622283 0.3606565675433386 0.6580218111643774 0.08245530117721241 0.532851205960041 0.3036135840621638 -0.116157502480429 -1.061203751822689 -0.0536574849401459 -0.04366728626330575 -0.5338523333466374 -0.1004040415672564 0.240046305294183 -0.053990912405631 -0.5161597865513424 0.461086663359757 -0.3700904039949776 0.2631486759462593 0.8070906403282279 -0.03952308744033417 
0.5867436625573611 0.0005835284938049968 0.3298497571059589 0.4881767920695702 -0.3160282205375269 -0.05901462694640205 0.05927876540652777 0.4025436919427652 -0.3717824226835802 0.4071922843598598 -0.4138315936278536 -0.0005506721639137491 -0.6628755514082186 0.1214979688823377 0.152492158836153 -0.5698320376526098 -1.358802692865268 -0.1096492594517808 0.5383848013758162 -0.6072907414272035 
-0.06154349912920144 0.02995410340955762 0.6874178229411089 0.0008058359859125508 -0.7584270357220384 -0.4961453318546065 -0.2099569112296162 0.1894905410490086 1.076265131479382 0.4687716588469685 -0.7703967888018763 0.08065985546557479 0.1753897156479034 -1.135266029232118 -0.7478556159079357 0.2336064735306618 -0.192065487787734 0.1264784362991877 -0.5976388512408707 -0.09226154406139973 
-0.443784261845959 0.01993994738486052 -0.5461383912725221 -0.1266458580054508 -0.7245458423420861 -0.5064087447037139 0.201029979544403 0.1556549780071356 -0.03176696241149413 -0.3372033522964488 -0.1358489089539905 -0.14814807402128 0.1771278221820534 0.4430541734400167 -0.02424563096340666 0.4785932276460803 0.5756456200278501 0.1352926308233788 -0.3386448856766635 0.01490162420540819 
0.3912440478028013 -0.5145280247484084 0.1527472947510284 0.2721803459896383 0.04787085632417061 -0.106173083913148 -0.2290355056952592 -0.04268216784835782 0.56602969181352 -0.4131120913298615 0.3954688792232363 0.1926831050357586 0.1484862084316848 -0.3565045314614257 0.5606923736112447 0.5949451164185831 -0.3685049211270662 0.9735439135690129 -0.4837181075041557 -0.6369349799453635 
0.04036925519527649 -0.1321354145870755 0.6544940560424279 -0.03923007232593248 0.1297667082786979 -0.1058302866729172 0.1452481603171153 0.1516484305486142 -0.5599877899077029 -0.3053160056387673 0.4364707166936898 -0.3232536021392218 0.4096336096129307 0.5714158162534225 -0.4484170295493566 -0.00805597682522062 -0.1676984904077 -0.2207694305116409 0.381902002458481 -0.02737254941381503 
-0.6640032671414481 -0.03104278571712046 0.5411880661510329 0.2285898952791202 -0.0226604614574558 0.5959037138360473 -0.1709159509611439 0.8004903943045902 -0.486747694550641 0.5021402821341173 0.1696144410891033 -0.3004401193312782 0.1037226904228047 -0.5130585636737407 0.2628531445668336 0.7311745425593615 0.2359692207469015 -0.4016218825443176 0.2982727939799488 0.5082555444917783 
